{
  "version": "1.0",
  "truncation": null,
  "padding": null,
  "added_tokens": [
    {
      "id": 0,
      "content": "<|pad|>",
      "single_word": false,
      "lstrip": false,
      "rstrip": false,
      "normalized": false,
      "special": true
    },
    {
      "id": 1,
      "content": "<|eos|>",
      "single_word": false,
      "lstrip": false,
      "rstrip": false,
      "normalized": false,
      "special": true
    },
    {
      "id": 2,
      "content": "<|unk|>",
      "single_word": false,
      "lstrip": false,
      "rstrip": false,
      "normalized": false,
      "special": true
    }
  ],
  "normalizer": null,
  "pre_tokenizer": {
    "type": "ByteLevel",
    "add_prefix_space": false,
    "trim_offsets": true,
    "use_regex": true
  },
  "post_processor": null,
  "decoder": {
    "type": "ByteLevel",
    "add_prefix_space": true,
    "trim_offsets": true,
    "use_regex": true
  },
  "model": {
    "type": "BPE",
    "dropout": null,
    "unk_token": "<|unk|>",
    "continuing_subword_prefix": null,
    "end_of_word_suffix": null,
    "fuse_unk": false,
    "byte_fallback": false,
    "ignore_merges": false,
    "vocab": {
      "<|pad|>": 0,
      "<|eos|>": 1,
      "<|unk|>": 2,
      "!": 3,
      "\"": 4,
      "#": 5,
      "$": 6,
      "%": 7,
      "&": 8,
      "'": 9,
      "(": 10,
      ")": 11,
      "*": 12,
      "+": 13,
      ",": 14,
      "-": 15,
      ".": 16,
      "/": 17,
      "0": 18,
      "1": 19,
      "2": 20,
      "3": 21,
      "4": 22,
      "5": 23,
      "6": 24,
      "7": 25,
      "8": 26,
      "9": 27,
      ":": 28,
      ";": 29,
      "<": 30,
      "=": 31,
      ">": 32,
      "?": 33,
      "@": 34,
      "A": 35,
      "B": 36,
      "C": 37,
      "D": 38,
      "E": 39,
      "F": 40,
      "G": 41,
      "H": 42,
      "I": 43,
      "J": 44,
      "K": 45,
      "L": 46,
      "M": 47,
      "N": 48,
      "O": 49,
      "P": 50,
      "Q": 51,
      "R": 52,
      "S": 53,
      "T": 54,
      "U": 55,
      "V": 56,
      "W": 57,
      "X": 58,
      "Y": 59,
      "Z": 60,
      "[": 61,
      "\\": 62,
      "]": 63,
      "^": 64,
      "_": 65,
      "`": 66,
      "a": 67,
      "b": 68,
      "c": 69,
      "d": 70,
      "e": 71,
      "f": 72,
      "g": 73,
      "h": 74,
      "i": 75,
      "j": 76,
      "k": 77,
      "l": 78,
      "m": 79,
      "n": 80,
      "o": 81,
      "p": 82,
      "q": 83,
      "r": 84,
      "s": 85,
      "t": 86,
      "u": 87,
      "v": 88,
      "w": 89,
      "x": 90,
      "y": 91,
      "z": 92,
      "{": 93,
      "|": 94,
      "}": 95,
      "~": 96,
      "¡": 97,
      "¢": 98,
      "£": 99,
      "¤": 100,
      "¥": 101,
      "¦": 102,
      "§": 103,
      "¨": 104,
      "©": 105,
      "ª": 106,
      "«": 107,
      "¬": 108,
      "®": 109,
      "¯": 110,
      "°": 111,
      "±": 112,
      "²": 113,
      "³": 114,
      "´": 115,
      "µ": 116,
      "¶": 117,
      "·": 118,
      "¸": 119,
      "¹": 120,
      "º": 121,
      "»": 122,
      "¼": 123,
      "½": 124,
      "¾": 125,
      "¿": 126,
      "Â": 127,
      "Ã": 128,
      "Ä": 129,
      "Å": 130,
      "Æ": 131,
      "Ç": 132,
      "È": 133,
      "É": 134,
      "Ê": 135,
      "Ë": 136,
      "Ì": 137,
      "Í": 138,
      "Î": 139,
      "Ï": 140,
      "Ð": 141,
      "Ñ": 142,
      "Ò": 143,
      "Ó": 144,
      "Ô": 145,
      "Õ": 146,
      "Ö": 147,
      "×": 148,
      "Ø": 149,
      "Ù": 150,
      "Ú": 151,
      "Û": 152,
      "Ü": 153,
      "à": 154,
      "á": 155,
      "â": 156,
      "ã": 157,
      "ä": 158,
      "å": 159,
      "æ": 160,
      "ç": 161,
      "è": 162,
      "é": 163,
      "ê": 164,
      "ë": 165,
      "ì": 166,
      "í": 167,
      "ï": 168,
      "ð": 169,
      "Ċ": 170,
      "Ġ": 171,
      "Ģ": 172,
      "ģ": 173,
      "Ĥ": 174,
      "ĥ": 175,
      "Ħ": 176,
      "ħ": 177,
      "Ĩ": 178,
      "ĩ": 179,
      "Ī": 180,
      "ī": 181,
      "Ĭ": 182,
      "ĭ": 183,
      "Į": 184,
      "į": 185,
      "İ": 186,
      "ı": 187,
      "Ĳ": 188,
      "ĳ": 189,
      "Ĵ": 190,
      "ĵ": 191,
      "Ķ": 192,
      "ķ": 193,
      "ĸ": 194,
      "Ĺ": 195,
      "ĺ": 196,
      "Ļ": 197,
      "ļ": 198,
      "Ľ": 199,
      "ľ": 200,
      "Ŀ": 201,
      "ŀ": 202,
      "Ł": 203,
      "ł": 204,
      "Ń": 205,
      "Ġt": 206,
      "Ġa": 207,
      "he": 208,
      "in": 209,
      "re": 210,
      "on": 211,
      "Ġthe": 212,
      "er": 213,
      "at": 214,
      "Ġs": 215,
      "Ġo": 216,
      "en": 217,
      "Ġc": 218,
      "es": 219,
      "nd": 220,
      "Ġw": 221,
      "is": 222,
      "or": 223,
      "it": 224,
      "al": 225,
      "Ġp": 226,
      "ed": 227,
      "an": 228,
      "Ġf": 229,
      "Ġb": 230,
      "ing": 231,
      "Ġof": 232,
      "ar": 233,
      "Ġin": 234,
      "ou": 235,
      "Ġand": 236,
      "ic": 237,
      "Ġm": 238,
      "Ġto": 239,
      "ion": 240,
      "Ġd": 241,
      "le": 242,
      "ro": 243,
      "as": 244,
      "ent": 245,
      "Ġh": 246,
      "Ġth": 247,
      "il": 248,
      "ct": 249,
      "ĠT": 250,
      "Ġe": 251,
      "Ġre": 252,
      "om": 253,
      "ve": 254,
      "Ġl": 255,
      "st": 256,
      "âĢ": 257,
      "Ġn": 258,
      "ol": 259,
      "ĠA": 260,
      "Ġis": 261,
      "ly": 262,
      "Ġbe": 263,
      "ĠS": 264,
      "ation": 265,
      "Ġg": 266,
      "se": 267,
      "ra": 268,
      "id": 269,
      "ĠC": 270,
      "ch": 271,
      "et": 272,
      "im": 273,
      "ce": 274,
      "ur": 275,
      "ut": 276,
      "ot": 277,
      "ĠI": 278,
      "ow": 279,
      "Ġfor": 280,
      "ig": 281,
      "Ġon": 282,
      "Ġst": 283,
      "Ġu": 284,
      "ver": 285,
      "ĠThe": 286,
      "am": 287,
      "ir": 288,
      "Ġthat": 289,
      "Ġy": 290,
      "ay": 291,
      "ul": 292,
      "ĠM": 293,
      "el": 294,
      "ith": 295,
      "Ġas": 296,
      "ad": 297,
      "Ġ1": 298,
      "ĠP": 299,
      "Ġ(": 300,
      "Ġpro": 301,
      "her": 302,
      "Ġwith": 303,
      "Ġcon": 304,
      "Ġare": 305,
      "Ġan": 306,
      "ĠB": 307,
      "if": 308,
      "ter": 309,
      "Ġyou": 310,
      "Ġor": 311,
      "ĠW": 312,
      "Ġwh": 313,
      "ment": 314,
      "ge": 315,
      "od": 316,
      "Ġit": 317,
      "Ġal": 318,
      "ist": 319,
      "ĠH": 320,
      "--": 321,
      "ers": 322,
      "th": 323,
      "ess": 324,
      "op": 325,
      "ate": 326,
      "ill": 327,
      "ies": 328,
      "ĠD": 329,
      "Ġde": 330,
      "us": 331,
      "ab": 332,
      "Ġhe": 333,
      "ĠR": 334,
      "Ġex": 335,
      "ĠE": 336,
      "um": 337,
      "Ġcom": 338,
      "res": 339,
      "ity": 340,
      "ĠF": 341,
      "ac": 342,
      "est": 343,
      "ect": 344,
      "Ġ2": 345,
      "ive": 346,
      "ud": 347,
      "and": 348,
      "Ġby": 349,
      "rom": 350,
      "ere": 351,
      "ore": 352,
      "em": 353,
      "Ġv": 354,
      "âĢĻ": 355,
      "iv": 356,
      "Ġsu": 357,
      "Ġat": 358,
      "os": 359,
      "ke": 360,
      "nt": 361,
      "qu": 362,
      "pp": 363,
      "Ġwas": 364,
      "ant": 365,
      "Ġ|": 366,
      "ĠN": 367,
      "ĠL": 368,
      "oc": 369,
      "ain": 370,
      "ld": 371,
      "Ġch": 372,
      "ĠâĢ": 373,
      "igh": 374,
      "ĠG": 375,
      "ort": 376,
      "Ġfrom": 377,
      "Ġ-": 378,
      "ri": 379,
      "Ġha": 380,
      "un": 381,
      "Ġne": 382,
      "Ġcan": 383,
      "ure": 384,
      "Ġr": 385,
      "Ġse": 386,
      "Ġle": 387,
      "art": 388,
      "ical": 389,
      "ial": 390,
      "og": 391,
      "ĠO": 392,
      "ĠĠ": 393,
      "**": 394,
      "Ġen": 395,
      "Ġsh": 396,
      "Ġnot": 397,
      "Ġhave": 398,
      "ap": 399,
      "00": 400,
      "Ġsp": 401,
      "rou": 402,
      "our": 403,
      "du": 404,
      "Ġwor": 405,
      "all": 406,
      "ions": 407,
      "ĠIn": 408,
      "ard": 409,
      "ight": 410,
      "Ġab": 411,
      "Ġthis": 412,
      "ag": 413,
      "ich": 414,
      "gh": 415,
      "ine": 416,
      "Ġwe": 417,
      "Ġpl": 418,
      "out": 419,
      "ĠJ": 420,
      "ated": 421,
      "ip": 422,
      "ost": 423,
      "ĠU": 424,
      "are": 425,
      "ome": 426,
      "Ġim": 427,
      "ear": 428,
      "ff": 429,
      "age": 430,
      "ther": 431,
      "pt": 432,
      "act": 433,
      "ould": 434,
      "ak": 435,
      "ell": 436,
      "Ġint": 437,
      "Ġus": 438,
      "ast": 439,
      "ide": 440,
      "Ġtheir": 441,
      "ĠTh": 442,
      "ec": 443,
      "ru": 444,
      "ult": 445,
      "per": 446,
      "ans": 447,
      "Ġcomp": 448,
      "Ġk": 449,
      "ary": 450,
      "iz": 451,
      "end": 452,
      "Ġyour": 453,
      "Ġ19": 454,
      "Ġinc": 455,
      "ia": 456,
      "ie": 457,
      "Ġwill": 458,
      "Ġwhe": 459,
      "Ġad": 460,
      "Ġcont": 461,
      "ood": 462,
      "ust": 463,
      "ous": 464,
      "'s": 465,
      "ong": 466,
      "ild": 467,
      "vel": 468,
      "orm": 469,
      "Ġwhich": 470,
      "Ġthey": 471,
      "ib": 472,
      "pl": 473,
      "cc": 474,
      "ater": 475,
      "ations": 476,
      "Ġall": 477,
      "----": 478,
      "Ġdis": 479,
      "Ġres": 480,
      "Ġhas": 481,
      "ĠSt": 482,
      "Ġte": 483,
      "ks": 484,
      "ire": 485,
      "Ġcl": 486,
      "ry": 487,
      "Ġmore": 488,
      "ents": 489,
      "ence": 490,
      "able": 491,
      "Ġdo": 492,
      "Ġ\"": 493,
      "ach": 494,
      "so": 495,
      "Ġman": 496,
      "ance": 497,
      "__": 498,
      "ep": 499,
      "âĢĿ": 500,
      "rit": 501,
      "ual": 502,
      "ber": 503,
      "ĠâĢľ": 504,
      "oo": 505,
      "ĠK": 506,
      "ass": 507,
      "ign": 508,
      "ind": 509,
      "Ġstud": 510,
      "Ġother": 511,
      "ction": 512,
      "av": 513,
      "ice": 514,
      "Ġimp": 515,
      "ish": 516,
      "Ġj": 517,
      "ub": 518,
      "Ġbut": 519,
      "Ġper": 520,
      "ake": 521,
      "Ġme": 522,
      "ory": 523,
      "Ġ20": 524,
      "Ġone": 525,
      "ition": 526,
      "Ġwere": 527,
      "Ġar": 528,
      "Ġapp": 529,
      "ĠIt": 530,
      "ord": 531,
      "ĠCh": 532,
      "ress": 533,
      "Ġalso": 534,
      "reat": 535,
      "ase": 536,
      "ame": 537,
      "au": 538,
      "Ġwho": 539,
      "Ġpart": 540,
      "Ġ3": 541,
      "Ġhis": 542,
      "Ġout": 543,
      "Ġun": 544,
      "Ġabout": 545,
      "ang": 546,
      "one": 547,
      "ack": 548,
      "ces": 549,
      "ime": 550,
      "ount": 551,
      "Ġso": 552,
      "ree": 553,
      "form": 554,
      "ue": 555,
      "ĠV": 556,
      "very": 557,
      "low": 558,
      "ric": 559,
      "ens": 560,
      "Ġsc": 561,
      "ew": 562,
      "Ġcomm": 563,
      "Ġpre": 564,
      "ace": 565,
      "ound": 566,
      "ĠThis": 567,
      "Ġev": 568,
      "ĠY": 569,
      "Ġpe": 570,
      "ian": 571,
      "ors": 572,
      "ren": 573,
      ").": 574,
      "now": 575,
      "Ġ**": 576,
      "erv": 577,
      "ose": 578,
      "olog": 579,
      "ays": 580,
      "Ġthem": 581,
      "Ġqu": 582,
      "ail": 583,
      "Ġsy": 584,
      "ike": 585,
      "mer": 586,
      "ph": 587,
      "lud": 588,
      "Ġrec": 589,
      "nder": 590,
      "Ġbec": 591,
      "Ġup": 592,
      "Ġtra": 593,
      "vers": 594,
      "ool": 595,
      "ite": 596,
      "Ġyear": 597,
      "iff": 598,
      "##": 599,
      "Ġwork": 600,
      "Ġits": 601,
      "ings": 602,
      "ople": 603,
      "ile": 604,
      "les": 605,
      "Ġro": 606,
      "lic": 607,
      "ĠâĢĵ": 608,
      "ates": 609,
      "ond": 610,
      "ll": 611,
      "rough": 612,
      "Ġgo": 613,
      "ational": 614,
      "Ġcol": 615,
      "Ġmay": 616,
      "Ġthan": 617,
      "tern": 618,
      "Ġhow": 619,
      "ook": 620,
      "Ġinto": 621,
      "ons": 622,
      "Ġchild": 623,
      "Ġbeen": 624,
      "Ġwhen": 625,
      "Ġsome": 626,
      "ts": 627,
      "ning": 628,
      "ities": 629,
      "ove": 630,
      "ys": 631,
      "ms": 632,
      "ough": 633,
      "Ġover": 634,
      "te": 635,
      "Ġinclud": 636,
      "Ġag": 637,
      "ĠWh": 638,
      "irst": 639,
      "lect": 640,
      "Ġtime": 641,
      "Ġpeople": 642,
      "Ġunder": 643,
      "Ġuse": 644,
      "Ġact": 645,
      "Ġdiff": 646,
      "Ġthere": 647,
      "velop": 648,
      "ific": 649,
      "Ġdes": 650,
      "Ġra": 651,
      "row": 652,
      "ments": 653,
      "Ġour": 654,
      "Ġ201": 655,
      "ject": 656,
      "ally": 657,
      "Ġbet": 658,
      "we": 659,
      "ative": 660,
      "Ġknow": 661,
      "Ġcons": 662,
      "chool": 663,
      "red": 664,
      "Ġ4": 665,
      "alth": 666,
      "ov": 667,
      "Ġtw": 668,
      "Ġnew": 669,
      "Ġthese": 670,
      "ics": 671,
      "ĠHe": 672,
      "Ġacc": 673,
      "Ġrel": 674,
      "ĠUn": 675,
      "hed": 676,
      "amp": 677,
      "Ġlike": 678,
      "Ġmost": 679,
      "ause": 680,
      "Ġneed": 681,
      "Ġbl": 682,
      "Ġsa": 683,
      "ob": 684,
      "ious": 685,
      "Ġhel": 686,
      "),": 687,
      "ark": 688,
      "ffect": 689,
      "Ġrep": 690,
      "Ġhad": 691,
      "fter": 692,
      "ced": 693,
      "Ġprodu": 694,
      "Ġprov": 695,
      "stem": 696,
      "Ġfirst": 697,
      "ath": 698,
      "Ġthrough": 699,
      "Ġ5": 700,
      "Ġhelp": 701,
      "oin": 702,
      "Ġoff": 703,
      "Ġac": 704,
      "uring": 705,
      "ating": 706,
      "Ġfe": 707,
      "Ġpr": 708,
      "Ġph": 709,
      "Ġdevelop": 710,
      "uc": 711,
      "rib": 712,
      "Ġsuch": 713,
      "Ġtr": 714,
      "round": 715,
      "Ġwhat": 716,
      "cess": 717,
      "Ġspec": 718,
      "ient": 719,
      "Ġif": 720,
      "ife": 721,
      "iss": 722,
      "..": 723,
      "ng": 724,
      "Ġwould": 725,
      "Ġany": 726,
      "ĠAs": 727,
      "ne": 728,
      "yp": 729,
      "erm": 730,
      "ular": 731,
      "Ġgen": 732,
      "Ġ*": 733,
      "Ġind": 734,
      "Ġno": 735,
      "als": 736,
      "Ġem": 737,
      "arch": 738,
      "Ġused": 739,
      "ram": 740,
      "Ġmany": 741,
      "Ġonly": 742,
      "Ġtwo": 743,
      "ased": 744,
      "iet": 745,
      "ink": 746,
      "ise": 747,
      "Ġ200": 748,
      "old": 749,
      "ĠĠĊ": 750,
      "Ġreg": 751,
      "ied": 752,
      "Ġexp": 753,
      "ures": 754,
      "rop": 755,
      "Ġam": 756,
      "ten": 757,
      "ful": 758,
      "ract": 759,
      "oth": 760,
      "wn": 761,
      "Ġdiffere": 762,
      "oss": 763,
      "ange": 764,
      "ility": 765,
      "--------": 766,
      "Ġsupp": 767,
      "gan": 768,
      "ĠRe": 769,
      "____": 770,
      "eth": 771,
      "Ġatt": 772,
      "Ġass": 773,
      "hen": 774,
      "xt": 775,
      "Ġsystem": 776,
      "Ġadd": 777,
      "Ġher": 778,
      "ert": 779,
      "Ġpol": 780,
      "own": 781,
      "ble": 782,
      "ily": 783,
      "Ġwater": 784,
      "Ġdec": 785,
      "ible": 786,
      "Ġob": 787,
      "ural": 788,
      "Ġinf": 789,
      "Ġsur": 790,
      "aw": 791,
      "Ġco": 792,
      "ween": 793,
      "Ġed": 794,
      "Ġsub": 795,
      "Ġwell": 796,
      "ted": 797,
      "land": 798,
      "Ġshould": 799,
      "ting": 800,
      "Ġfl": 801,
      "Ġrem": 802,
      "Ġrese": 803,
      "Ġlear": 804,
      "ution": 805,
      "The": 806,
      "Ġyears": 807,
      "ĠCom": 808,
      "ower": 809,
      "Ġwhere": 810,
      "hes": 811,
      "Ġpers": 812,
      "ade": 813,
      "cy": 814,
      "Ġinv": 815,
      "ience": 816,
      "fore": 817,
      "Ġpres": 818,
      "19": 819,
      "chn": 820,
      "Ġbu": 821,
      "ick": 822,
      "Ġbetween": 823,
      "Ġear": 824,
      "Ġhigh": 825,
      "ident": 826,
      "Ġ6": 827,
      "ited": 828,
      "its": 829,
      "meric": 830,
      "Ġwrit": 831,
      "Ġhealth": 832,
      "ĠAl": 833,
      "ivers": 834,
      "Ġ18": 835,
      "Ġtrans": 836,
      "ĠWe": 837,
      "Ġsm": 838,
      "ology": 839,
      "ĠAn": 840,
      "Ġform": 841,
      "ollow": 842,
      "Ġschool": 843,
      "ants": 844,
      "iew": 845,
      "ered": 846,
      "20": 847,
      "Ġmake": 848,
      "ont": 849,
      "ĠPro": 850,
      "Ġchildren": 851,
      "sel": 852,
      "ines": 853,
      "Ġstudents": 854,
      "Ġdisc": 855,
      "formation": 856,
      "Ġafter": 857,
      "hip": 858,
      "Ġpub": 859,
      "Ġget": 860,
      "Ġimport": 861,
      "Ġnum": 862,
      "Ġinter": 863,
      "oy": 864,
      "Ġinst": 865,
      "ft": 866,
      "Ġprog": 867,
      "Ġmod": 868,
      "Ġfound": 869,
      "ork": 870,
      "ists": 871,
      "ature": 872,
      "Ġref": 873,
      "uch": 874,
      "Ġloc": 875,
      "ĠIf": 876,
      "cept": 877,
      "ck": 878,
      "Ġcould": 879,
      "ins": 880,
      "Ġexper": 881,
      "ict": 882,
      "Ġdifferent": 883,
      "ward": 884,
      "Ġcent": 885,
      "erg": 886,
      "Ġmed": 887,
      "Ġeffect": 888,
      "ives": 889,
      "ruct": 890,
      "Ġfam": 891,
      "ĠHow": 892,
      "Ġcar": 893,
      "Ġke": 894,
      "Ġshe": 895,
      "ĠAmeric": 896,
      "roup": 897,
      "Ġart": 898,
      "Ġlong": 899,
      "Ġsoc": 900,
      "aking": 901,
      "Ġfollow": 902,
      "ever": 903,
      "Ġworld": 904,
      "Ġlife": 905,
      "Ġresp": 906,
      "ism": 907,
      "Ġess": 908,
      "Ġgra": 909,
      "Ġlar": 910,
      "Ġcommun": 911,
      "ices": 912,
      "ĠFor": 913,
      "vent": 914,
      "Ġserv": 915,
      "ĠAr": 916,
      "urn": 917,
      "led": 918,
      "get": 919,
      "ness": 920,
      "Ġsim": 921,
      "ually": 922,
      "âĢ¯": 923,
      "other": 924,
      "ues": 925,
      "Ġsk": 926,
      "arm": 927,
      "Ġsign": 928,
      "ata": 929,
      "Ġvar": 930,
      "Ġeach": 931,
      "Ġthen": 932,
      "orn": 933,
      "Ġsec": 934,
      "ros": 935,
      "Ġbecause": 936,
      "Ġcount": 937,
      "Ġread": 938,
      "Ġtyp": 939,
      "iron": 940,
      "Ġvery": 941,
      "Ġhist": 942,
      "ds": 943,
      "Ġduring": 944,
      "Ġway": 945,
      "ically": 946,
      "Ġjust": 947,
      "io": 948,
      "eral": 949,
      "vern": 950,
      "Ġsee": 951,
      "Ġlead": 952,
      "Ġinformation": 953,
      "Ġdet": 954,
      "Ġtechn": 955,
      "Ġdist": 956,
      "Ġevery": 957,
      "ages": 958,
      "Ġ7": 959,
      "ef": 960,
      "Ġincre": 961,
      "tle": 962,
      "Ġset": 963,
      "Ġprocess": 964,
      "any": 965,
      "Ġbeing": 966,
      "up": 967,
      "Ġrequ": 968,
      "Ġeven": 969,
      "iversity": 970,
      "Ġthose": 971,
      "Ġown": 972,
      "Ġmon": 973,
      "Ġpartic": 974,
      "ample": 975,
      "ĠNew": 976,
      "Ġext": 977,
      "Ġperson": 978,
      "Ġent": 979,
      "ather": 980,
      "Ġhum": 981,
      "ĠSp": 982,
      "ĠWhat": 983,
      "Ġcall": 984,
      "Ġfood": 985,
      "Ġdep": 986,
      "ized": 987,
      "imes": 988,
      "Ġcre": 989,
      "ases": 990,
      "Ġimportant": 991,
      "hem": 992,
      "und": 993,
      "ral": 994,
      "cer": 995,
      "Ġgrow": 996,
      "ale": 997,
      "stand": 998,
      "Ġaut": 999,
      "ĠYou": 1000,
      "Ġfact": 1001,
      "Ġdef": 1002,
      "ĠSc": 1003,
      "Ġ8": 1004,
      "ĠThey": 1005,
      "Ġmin": 1006,
      "Ġexpl": 1007,
      "Ġmem": 1008,
      "Ġresult": 1009,
      "Ġsaid": 1010,
      "ional": 1011,
      "Ġresearch": 1012,
      "cent": 1013,
      "inal": 1014,
      "ved": 1015,
      "âĢĵ": 1016,
      "Ġstr": 1017,
      "âĢĳ": 1018,
      "Ġgroup": 1019,
      "Ġcomple": 1020,
      "ody": 1021,
      "Ġcur": 1022,
      "viron": 1023,
      "ished": 1024,
      "ection": 1025,
      "Ġstudy": 1026,
      "iel": 1027,
      "oh": 1028,
      "Ġend": 1029,
      "gg": 1030,
      "Ġgood": 1031,
      "onom": 1032,
      "Ġshow": 1033,
      "Ġpat": 1034,
      "ĠThere": 1035,
      "Ġright": 1036,
      "Ġfind": 1037,
      "Ġav": 1038,
      "Ġmy": 1039,
      "Ġsupport": 1040,
      "Ġback": 1041,
      "Ġ10": 1042,
      "ĠInd": 1043,
      "Ġsol": 1044,
      "Ġboth": 1045,
      "Ġproble": 1046,
      "com": 1047,
      "Ġclass": 1048,
      "irect": 1049,
      "Ġdoes": 1050,
      "Ġmade": 1051,
      "Ġmuch": 1052,
      "Ġlevel": 1053,
      "ock": 1054,
      "ix": 1055,
      "Ġmain": 1056,
      "Ġ9": 1057,
      "Ġbefore": 1058,
      "Ġbr": 1059,
      "ize": 1060,
      "Ġorgan": 1061,
      "Ġsame": 1062,
      "Ġeduc": 1063,
      "ality": 1064,
      "000": 1065,
      "air": 1066,
      "ex": 1067,
      "Ġins": 1068,
      "Ġincluding": 1069,
      "ien": 1070,
      "Ġcare": 1071,
      "Ġusing": 1072,
      "Ġprovid": 1073,
      "raph": 1074,
      "Ġdesign": 1075,
      "Ġgl": 1076,
      "Ġlit": 1077,
      "Ġsmall": 1078,
      "Ġpop": 1079,
      "Ġchar": 1080,
      "vironment": 1081,
      "ars": 1082,
      "Ġdata": 1083,
      "Ġactiv": 1084,
      "Ġwhile": 1085,
      "ivid": 1086,
      "hers": 1087,
      "ury": 1088,
      "ters": 1089,
      "ince": 1090,
      ".âĢĿ": 1091,
      "akes": 1092,
      "nce": 1093,
      "Ġstate": 1094,
      "read": 1095,
      "ĠDe": 1096,
      "ah": 1097,
      "Ġplay": 1098,
      "ially": 1099,
      "ier": 1100,
      "ok": 1101,
      "Ġec": 1102,
      "Ġcap": 1103,
      "imate": 1104,
      "Ġvis": 1105,
      "omen": 1106,
      "Ġless": 1107,
      "der": 1108,
      "ax": 1109,
      "dition": 1110,
      "ute": 1111,
      "lish": 1112,
      "way": 1113,
      "uss": 1114,
      "Ġday": 1115,
      "ĠSe": 1116,
      "aj": 1117,
      "ty": 1118,
      "Ġthree": 1119,
      "Ġgu": 1120,
      "Ġnumber": 1121,
      "ĠBut": 1122,
      "Ġprot": 1123,
      "ergy": 1124,
      "Ġoften": 1125,
      "Ġser": 1126,
      "anc": 1127,
      "Ġtake": 1128,
      "Ġ199": 1129,
      "rodu": 1130,
      "ouse": 1131,
      "rain": 1132,
      "cl": 1133,
      "eg": 1134,
      "eng": 1135,
      "iqu": 1136,
      "Ġval": 1137,
      "Ġdi": 1138,
      "ĠIs": 1139,
      "ands": 1140,
      "oint": 1141,
      "ns": 1142,
      "iety": 1143,
      "Ġagain": 1144,
      "Ġpublic": 1145,
      "Ġplan": 1146,
      "ross": 1147,
      "ave": 1148,
      "Ġnow": 1149,
      "Ġtest": 1150,
      "ains": 1151,
      "day": 1152,
      "Ġocc": 1153,
      "ven": 1154,
      "ash": 1155,
      "Ġ&": 1156,
      "ĠEng": 1157,
      "outh": 1158,
      "ank": 1159,
      "ĠSh": 1160,
      "line": 1161,
      "Ġcle": 1162,
      "---": 1163,
      "Ġ'": 1164,
      "Ġaround": 1165,
      "âĢĶ": 1166,
      "ĠEx": 1167,
      "ving": 1168,
      "Ġdown": 1169,
      "Ġop": 1170,
      "Ġconf": 1171,
      "Ġstart": 1172,
      "iving": 1173,
      "Ġgovern": 1174,
      "Ġhim": 1175,
      "Ġtreat": 1176,
      "ĠAd": 1177,
      "ulation": 1178,
      "Ġposs": 1179,
      "ron": 1180,
      "Ġunderstand": 1181,
      "Ġelect": 1182,
      "rent": 1183,
      "ull": 1184,
      "arent": 1185,
      "ĠAnd": 1186,
      "ital": 1187,
      "ton": 1188,
      "rol": 1189,
      "Ġest": 1190,
      "ug": 1191,
      "Ġcontin": 1192,
      "ĠCon": 1193,
      "Ġbuild": 1194,
      "ple": 1195,
      "itions": 1196,
      "ĠRes": 1197,
      "ired": 1198,
      "Ġpower": 1199,
      "de": 1200,
      "Ġpract": 1201,
      "ior": 1202,
      "ĠUniversity": 1203,
      "tt": 1204,
      "acter": 1205,
      "ering": 1206,
      "aus": 1207,
      "Ġmus": 1208,
      "Ġbel": 1209,
      "ĠWhen": 1210,
      "angu": 1211,
      "Ġfun": 1212,
      "ium": 1213,
      "ources": 1214,
      "ves": 1215,
      "Ġdid": 1216,
      "Ġdise": 1217,
      "view": 1218,
      "ik": 1219,
      "Ġadv": 1220,
      "Ġret": 1221,
      "Ġcour": 1222,
      "the": 1223,
      ".\"": 1224,
      "Ġpo": 1225,
      "Ġlook": 1226,
      "man": 1227,
      "ĠTo": 1228,
      "ĠPh": 1229,
      "Ġmust": 1230,
      "Ġreport": 1231,
      "Ġquest": 1232,
      "Ġprof": 1233,
      "Ġcor": 1234,
      "oun": 1235,
      "Ġcommon": 1236,
      "ĠThese": 1237,
      "ĠTe": 1238,
      "Ġconst": 1239,
      "Ġide": 1240,
      "Ġcult": 1241,
      "Ġgreat": 1242,
      "bers": 1243,
      "ĠCl": 1244,
      "Ġris": 1245,
      "ills": 1246,
      "Ġplace": 1247,
      "ined": 1248,
      "Ġappro": 1249,
      "Ġeng": 1250,
      "Ġbody": 1251,
      "aterial": 1252,
      "Ġbeh": 1253,
      "Ġredu": 1254,
      "Ġlearn": 1255,
      "Ġlarge": 1256,
      "Ġthink": 1257,
      ".,": 1258,
      "ason": 1259,
      "iness": 1260,
      "Ġknown": 1261,
      "Ġhuman": 1262,
      "ared": 1263,
      "Ġexample": 1264,
      "Ġenvironment": 1265,
      "Ġequ": 1266,
      "Ġmat": 1267,
      "Ġpos": 1268,
      "ĠQ": 1269,
      "Ġwithin": 1270,
      "Ġdr": 1271,
      "orth": 1272,
      "Ġallow": 1273,
      "Ġgener": 1274,
      "ision": 1275,
      "ets": 1276,
      "Ġdevelopment": 1277,
      "'t": 1278,
      "ĠCol": 1279,
      "Ġarea": 1280,
      "Ġdirect": 1281,
      "Ġconsid": 1282,
      "ĠPl": 1283,
      "Ġbo": 1284,
      "oci": 1285,
      "self": 1286,
      "ĠAmerican": 1287,
      "ividual": 1288,
      "Ġpresent": 1289,
      "ograph": 1290,
      "az": 1291,
      "iven": 1292,
      "10": 1293,
      "els": 1294,
      "ization": 1295,
      "inc": 1296,
      "ner": 1297,
      "ived": 1298,
      "Ġcell": 1299,
      "ĠLe": 1300,
      "Ġpur": 1301,
      "Ġfamily": 1302,
      "Ġdem": 1303,
      "gen": 1304,
      "Ġmet": 1305,
      "alk": 1306,
      "Ġtop": 1307,
      "ĠComm": 1308,
      "Ġthough": 1309,
      "Ġsocial": 1310,
      "itive": 1311,
      "Ġsom": 1312,
      "Ġproject": 1313,
      "iod": 1314,
      "ries": 1315,
      "ration": 1316,
      "reen": 1317,
      "Ġprogram": 1318,
      "Ġident": 1319,
      "erest": 1320,
      "Ġiss": 1321,
      "irc": 1322,
      "use": 1323,
      "Ġ[": 1324,
      "ential": 1325,
      "aper": 1326,
      "Ġoper": 1327,
      "ected": 1328,
      "Ġeas": 1329,
      "Ġmaterial": 1330,
      "ination": 1331,
      "lished": 1332,
      "Ġessay": 1333,
      "ids": 1334,
      "Ġanal": 1335,
      "Ġlearning": 1336,
      "Ġdesc": 1337,
      "pr": 1338,
      "Ġhistory": 1339,
      "Ġcalled": 1340,
      "osed": 1341,
      "Ġphys": 1342,
      "Ġhome": 1343,
      "ption": 1344,
      "Ġinclude": 1345,
      "Ġproduct": 1346,
      "Ġpar": 1347,
      "Ġmark": 1348,
      "###": 1349,
      "ield": 1350,
      "Ġindividual": 1351,
      "Ġearly": 1352,
      "Ġchange": 1353,
      ",âĢĿ": 1354,
      "hor": 1355,
      "Ġimpro": 1356,
      "ern": 1357,
      "Ġchang": 1358,
      "Ġsl": 1359,
      "Ġperform": 1360,
      "ording": 1361,
      "ĠBe": 1362,
      "Ġstill": 1363,
      "ajor": 1364,
      "oms": 1365,
      "Ġmar": 1366,
      "bs": 1367,
      "ccess": 1368,
      "________": 1369,
      "Ġwant": 1370,
      "ffic": 1371,
      "Ġenergy": 1372,
      "ards": 1373,
      "ense": 1374,
      "Ġcaus": 1375,
      "Ġsecond": 1376,
      "Ġsit": 1377,
      "Ġlater": 1378,
      "Ġlight": 1379,
      "ify": 1380,
      "Ġfollowing": 1381,
      "me": 1382,
      "Ġopp": 1383,
      "ĠAt": 1384,
      "wer": 1385,
      "anguage": 1386,
      "Ġfew": 1387,
      "Ġve": 1388,
      "ended": 1389,
      "Ġprom": 1390,
      "Ġdon": 1391,
      "ats": 1392,
      "ĠZ": 1393,
      "Ġmight": 1394,
      "ained": 1395,
      "ĠOn": 1396,
      "Ġfil": 1397,
      "Ġbest": 1398,
      "ger": 1399,
      "ĠâĢĺ": 1400,
      "ek": 1401,
      "ames": 1402,
      "Ġwithout": 1403,
      "Ġtem": 1404,
      "Ġspe": 1405,
      "Ġ15": 1406,
      "Ġbas": 1407,
      "ource": 1408,
      "atic": 1409,
      "Ġorig": 1410,
      "Ġsym": 1411,
      "Ġbook": 1412,
      "Ġstand": 1413,
      "Ġleg": 1414,
      "lu": 1415,
      "ission": 1416,
      "ogn": 1417,
      "Ġbus": 1418,
      "rist": 1419,
      "erc": 1420,
      "Ġhand": 1421,
      "ww": 1422,
      "Ġ12": 1423,
      "ability": 1424,
      "ological": 1425,
      "esp": 1426,
      "Ġland": 1427,
      "Ġwomen": 1428,
      "Ġmeth": 1429,
      "ified": 1430,
      "ental": 1431,
      "Ġimm": 1432,
      "illion": 1433,
      "Ġeconom": 1434,
      "ator": 1435,
      "ĠâĢĶ": 1436,
      "Ġwar": 1437,
      "Ġinterest": 1438,
      "Ġele": 1439,
      "ently": 1440,
      "iver": 1441,
      "Ġname": 1442,
      "Ġsever": 1443,
      "por": 1444,
      "Ġfin": 1445,
      "Ġgovernment": 1446,
      "Ġpass": 1447,
      "ĠNational": 1448,
      "Ġlist": 1449,
      "Ġanim": 1450,
      "agn": 1451,
      "ateg": 1452,
      "less": 1453,
      "Ġmeas": 1454,
      "ĠHowever": 1455,
      "ailable": 1456,
      "ĠCan": 1457,
      "ised": 1458,
      "Ġbre": 1459,
      "arly": 1460,
      "Ġanother": 1461,
      "une": 1462,
      "Ġrest": 1463,
      "gin": 1464,
      "ĠAll": 1465,
      "ps": 1466,
      "Ġpain": 1467,
      "atural": 1468,
      "ocus": 1469,
      "Ġprovide": 1470,
      "Ġben": 1471,
      "Ġmove": 1472,
      "Ġspecies": 1473,
      "Ġmil": 1474,
      "Ġpot": 1475,
      "ertain": 1476,
      "Ġmajor": 1477,
      "ote": 1478,
      "ina": 1479,
      "Ġopen": 1480,
      "ling": 1481,
      "ĠWor": 1482,
      "Ġter": 1483,
      "br": 1484,
      "ways": 1485,
      "ians": 1486,
      "Ġlast": 1487,
      "Ġsaf": 1488,
      "Ġbecome": 1489,
      "ining": 1490,
      "ĠCent": 1491,
      "):": 1492,
      "Ġold": 1493,
      "Ġteac": 1494,
      "Ġplant": 1495,
      "Ġbetter": 1496,
      "Ġeducation": 1497,
      "Ġrele": 1498,
      "ĠUnited": 1499,
      "Ġinvol": 1500,
      "Ġbelie": 1501,
      "Ġtre": 1502,
      "Ġindu": 1503,
      "Ġunt": 1504,
      "Ġfour": 1505,
      "pect": 1506,
      "ware": 1507,
      "ĠOr": 1508,
      "port": 1509,
      "Ġ0": 1510,
      "ories": 1511,
      "Ġseveral": 1512,
      "Ġlaw": 1513,
      "Ġreal": 1514,
      "par": 1515,
      "Ġ17": 1516,
      "Ġdisease": 1517,
      "Ġlow": 1518,
      "Ġ198": 1519,
      "ret": 1520,
      "Ġfac": 1521,
      "Ġfree": 1522,
      "Ġbro": 1523,
      "Ġorder": 1524,
      "here": 1525,
      "âĢ¦": 1526,
      "Ġkeep": 1527,
      "ane": 1528,
      "18": 1529,
      "ention": 1530,
      "Ġproper": 1531,
      "Ġrece": 1532,
      "Ġcurrent": 1533,
      "Ġstruct": 1534,
      "ĠEn": 1535,
      "Ġmean": 1536,
      "Ġable": 1537,
      "ĠFr": 1538,
      "arc": 1539,
      "Ġoccur": 1540,
      "Ġexam": 1541,
      "Ġparent": 1542,
      "ooks": 1543,
      "Ġair": 1544,
      "icle": 1545,
      "to": 1546,
      "----------------": 1547,
      "Ġfore": 1548,
      "Ġel": 1549,
      "Ġaccess": 1550,
      "ĠStud": 1551,
      "Ġagainst": 1552,
      "work": 1553,
      "Ġaddition": 1554,
      "Ġbased": 1555,
      "Ġlocal": 1556,
      "Ġmethod": 1557,
      "Ġhere": 1558,
      "ances": 1559,
      "Ġavailable": 1560,
      "ĠSo": 1561,
      "Ġperiod": 1562,
      "Ġhead": 1563,
      "resent": 1564,
      "oot": 1565,
      "ĠShe": 1566,
      "ends": 1567,
      "Ġhapp": 1568,
      "Ġmeans": 1569,
      "let": 1570,
      "Ġtoo": 1571,
      "Ġothers": 1572,
      "Ġ16": 1573,
      "Ġteam": 1574,
      "Ġche": 1575,
      "ternational": 1576,
      "cing": 1577,
      "Ġnon": 1578,
      "Ġsignific": 1579,
      "ember": 1580,
      "Ġant": 1581,
      "Ġage": 1582,
      "Ġrisk": 1583,
      "Ġ.": 1584,
      "Ġareas": 1585,
      "Ġparticular": 1586,
      "Ġcontrol": 1587,
      "Ġworks": 1588,
      "elf": 1589,
      "agement": 1590,
      ",\"": 1591,
      "Ġscient": 1592,
      "af": 1593,
      "ĠSchool": 1594,
      "Ġfocus": 1595,
      "idence": 1596,
      "Ġdev": 1597,
      "Ġcommunity": 1598,
      "ĠJoh": 1599,
      "isc": 1600,
      "Ġyoung": 1601,
      "Ġrecord": 1602,
      "Ġsing": 1603,
      "Ġblood": 1604,
      "Ġlab": 1605,
      "Ġcal": 1606,
      "Ġlanguage": 1607,
      "ann": 1608,
      "ĠOne": 1609,
      "ribut": 1610,
      "Ġpossible": 1611,
      "Ġsince": 1612,
      "Ġcreat": 1613,
      "osp": 1614,
      "Ġpolit": 1615,
      "Ġconn": 1616,
      "Ġflow": 1617,
      "Ġaffect": 1618,
      "ird": 1619,
      "Ġsuccess": 1620,
      "Ġimpact": 1621,
      "Ġuntil": 1622,
      "Ġhig": 1623,
      "ĠGod": 1624,
      "Ġlim": 1625,
      "Ġfeel": 1626,
      "ĠMar": 1627,
      "Ġtimes": 1628,
      "Ġdel": 1629,
      "Ġwriting": 1630,
      "Ġprofess": 1631,
      "ĠBl": 1632,
      "Ġcr": 1633,
      "Ġcost": 1634,
      "Ġpost": 1635,
      "ole": 1636,
      "Ġ$": 1637,
      "Ġpercent": 1638,
      "Ġshort": 1639,
      "olution": 1640,
      "ones": 1641,
      "ledge": 1642,
      "ument": 1643,
      "Ġtru": 1644,
      "rap": 1645,
      "be": 1646,
      "Ġrun": 1647,
      "Ġcause": 1648,
      "Ġobject": 1649,
      "Ġindust": 1650,
      "oad": 1651,
      "urop": 1652,
      "50": 1653,
      "Ġthings": 1654,
      "ots": 1655,
      "Ġcountry": 1656,
      "ploy": 1657,
      "Ġcolle": 1658,
      "Ġbi": 1659,
      "ortun": 1660,
      "Ġcrit": 1661,
      "ĠWith": 1662,
      "Ġsay": 1663,
      "Ġmult": 1664,
      "Ġpaper": 1665,
      "aching": 1666,
      "Ġmonth": 1667,
      "urther": 1668,
      "Ġview": 1669,
      "oid": 1670,
      "Ġpoint": 1671,
      "Ġfre": 1672,
      "ĠStates": 1673,
      "Ġlet": 1674,
      "Ġproblems": 1675,
      "12": 1676,
      "ley": 1677,
      "Ġalong": 1678,
      "ysis": 1679,
      "iam": 1680,
      "Ġbenef": 1681,
      "Ġamong": 1682,
      "ried": 1683,
      "ĠChrist": 1684,
      "Ġsays": 1685,
      "Ġgr": 1686,
      "ured": 1687,
      "though": 1688,
      "icult": 1689,
      "min": 1690,
      "ides": 1691,
      "Ġmen": 1692,
      "ĠBy": 1693,
      "Ġappear": 1694,
      "ring": 1695,
      "Ġcase": 1696,
      "ray": 1697,
      "ope": 1698,
      "ym": 1699,
      "Ġproblem": 1700,
      "Ġmov": 1701,
      "Ġmaking": 1702,
      "Ġenc": 1703,
      "Ġbehav": 1704,
      "ients": 1705,
      "Ġterm": 1706,
      "Ġprevent": 1707,
      "aster": 1708,
      "Ġskills": 1709,
      "Ġcome": 1710,
      "Ġsw": 1711,
      "Ġauthor": 1712,
      "ape": 1713,
      "Ġspecial": 1714,
      "Ġput": 1715,
      "ĠInst": 1716,
      "ĠWorld": 1717,
      "ER": 1718,
      "int": 1719,
      "Ġ11": 1720,
      "omm": 1721,
      "Ġline": 1722,
      "over": 1723,
      "Ġvol": 1724,
      "mber": 1725,
      "Ġdue": 1726,
      "ĠSome": 1727,
      "Ġcharacter": 1728,
      "Ġill": 1729,
      "Ġnatural": 1730,
      "ĠMed": 1731,
      "Ġbusiness": 1732,
      "ditions": 1733,
      "Ġacross": 1734,
      "orts": 1735,
      "idd": 1736,
      "Ġet": 1737,
      "sy": 1738,
      "ĠUS": 1739,
      "Ġdra": 1740,
      "urope": 1741,
      "Ġcomput": 1742,
      "Ġdiscuss": 1743,
      "ĠEnglish": 1744,
      "Ġintrodu": 1745,
      "Ġrole": 1746,
      "Ġdeath": 1747,
      "Ġpress": 1748,
      "Ġkey": 1749,
      "iple": 1750,
      "ored": 1751,
      "ils": 1752,
      "ilities": 1753,
      "app": 1754,
      "by": 1755,
      "Ġdescrib": 1756,
      "Ġhard": 1757,
      "ĠAf": 1758,
      "uture": 1759,
      "ggest": 1760,
      "Ġtext": 1761,
      "Ġtreatment": 1762,
      "ged": 1763,
      "ĠComp": 1764,
      "Ġcourse": 1765,
      "ably": 1766,
      "ĠĠĠĠ": 1767,
      "oph": 1768,
      "chie": 1769,
      "ĠAfter": 1770,
      "Ġwords": 1771,
      "ression": 1772,
      "yl": 1773,
      "yd": 1774,
      "ruction": 1775,
      "ead": 1776,
      "ĠPr": 1777,
      "Ġgiven": 1778,
      "Ġturn": 1779,
      "ething": 1780,
      "Ġestab": 1781,
      "Ġsum": 1782,
      "Ġcirc": 1783,
      "Ġstory": 1784,
      "30": 1785,
      "Ġeffective": 1786,
      "Ġ197": 1787,
      "...": 1788,
      "atch": 1789,
      "rict": 1790,
      "Ġsignificant": 1791,
      "Ġneeds": 1792,
      "ending": 1793,
      "side": 1794,
      "ication": 1795,
      "tain": 1796,
      "cle": 1797,
      "ery": 1798,
      "Ġassoci": 1799,
      "aken": 1800,
      "ĠWar": 1801,
      "ately": 1802,
      "acy": 1803,
      "not": 1804,
      "Ġtype": 1805,
      "Ġcertain": 1806,
      "Ġlevels": 1807,
      "Ġactivities": 1808,
      "ison": 1809,
      "ĠCar": 1810,
      "Ġobs": 1811,
      "Ġtechnology": 1812,
      "//": 1813,
      "Ġsystems": 1814,
      "Ġlittle": 1815,
      "ours": 1816,
      "Ġtoget": 1817,
      "Ġtogether": 1818,
      "200": 1819,
      "Ġinvest": 1820,
      "atory": 1821,
      "str": 1822,
      "Ġcreate": 1823,
      "ilar": 1824,
      "Ġsuggest": 1825,
      "ĠBrit": 1826,
      "Ġtool": 1827,
      "Ġbecame": 1828,
      "Ġcomb": 1829,
      ":**": 1830,
      "Ġ14": 1831,
      "sp": 1832,
      "itor": 1833,
      "ode": 1834,
      "ĠGo": 1835,
      "Ġdifficult": 1836,
      "Ġamount": 1837,
      "ĠGen": 1838,
      "ique": 1839,
      "ĠAb": 1840,
      "ĠEurope": 1841,
      "ĠAss": 1842,
      "ĠDr": 1843,
      "ĠMay": 1844,
      "mit": 1845,
      "Ġexperience": 1846,
      "Ġpast": 1847,
      "ilt": 1848,
      "Ġdays": 1849,
      "atures": 1850,
      "hern": 1851,
      "Ġfar": 1852,
      "ems": 1853,
      "of": 1854,
      "11": 1855,
      "vious": 1856,
      "Ġworking": 1857,
      "ither": 1858,
      "Ġprim": 1859,
      "augh": 1860,
      "ler": 1861,
      "Ġrelations": 1862,
      "aves": 1863,
      "Ġvarious": 1864,
      "Ġdeterm": 1865,
      "ned": 1866,
      "Ġrespons": 1867,
      "ued": 1868,
      "Ġsomething": 1869,
      "Ġpopulation": 1870,
      "ĠIm": 1871,
      "Ġgive": 1872,
      "Ġask": 1873,
      "lement": 1874,
      "obal": 1875,
      "Ġhistor": 1876,
      "Ġinflu": 1877,
      "ales": 1878,
      "Ġwhy": 1879,
      "Ġalways": 1880,
      "://": 1881,
      "iting": 1882,
      "Ġrad": 1883,
      "Ġbegin": 1884,
      "Ġside": 1885,
      "ators": 1886,
      "aps": 1887,
      "urch": 1888,
      "org": 1889,
      "duct": 1890,
      "face": 1891,
      "ĠHist": 1892,
      "Ġleft": 1893,
      "ĠAust": 1894,
      "iation": 1895,
      "Ġspecific": 1896,
      "oman": 1897,
      "Ġnext": 1898,
      "uest": 1899,
      "Ġmusic": 1900,
      "Ġfuture": 1901,
      "ĠAfric": 1902,
      "Ġtoday": 1903,
      "Ġimprove": 1904,
      "Ġstudent": 1905,
      "Ġmillion": 1906,
      "Ġknowledge": 1907,
      "ober": 1908,
      "||": 1909,
      "Ġ30": 1910,
      "istic": 1911,
      "Ġscience": 1912,
      "Ġhouse": 1913,
      "aring": 1914,
      "Ġmot": 1915,
      "ĠJohn": 1916,
      "ourn": 1917,
      "Ġheart": 1918,
      "ĠSouth": 1919,
      "ĠHis": 1920,
      "ples": 1921,
      "yn": 1922,
      "Ġabove": 1923,
      "ising": 1924,
      "Ġplants": 1925,
      "Ġcomplete": 1926,
      "ĠAm": 1927,
      "ecially": 1928,
      "Ġcentury": 1929,
      "Ġfull": 1930,
      "Ġoffic": 1931,
      "Ġpolic": 1932,
      "Ġsubject": 1933,
      "Ġrecogn": 1934,
      "Ġresults": 1935,
      "Ġproduction": 1936,
      "asing": 1937,
      "etic": 1938,
      "ĠCal": 1939,
      "Ġstep": 1940,
      "Ġlikely": 1941,
      "ai": 1942,
      "ĠMan": 1943,
      "ott": 1944,
      "ung": 1945,
      "oura": 1946,
      "ublic": 1947,
      "ĠGu": 1948,
      "Ġachie": 1949,
      "**:": 1950,
      "ĠDo": 1951,
      "Ġapplic": 1952,
      "oice": 1953,
      "ae": 1954,
      "Ġusually": 1955,
      "Ġconsum": 1956,
      "ĠNo": 1957,
      "Ġparticip": 1958,
      "ĠAct": 1959,
      "Ġways": 1960,
      "Ġstrong": 1961,
      "adem": 1962,
      "ream": 1963,
      "Ġbrain": 1964,
      "Ġexist": 1965,
      "ĠPol": 1966,
      "Ġincrease": 1967,
      "Ġz": 1968,
      "Ġplac": 1969,
      "Ġvir": 1970,
      "Ġfunction": 1971,
      "Ġrepresent": 1972,
      "Ġtry": 1973,
      "Ġquestions": 1974,
      "Ġconditions": 1975,
      "ĠGe": 1976,
      "Ġ196": 1977,
      "Ġfund": 1978,
      "Ġresources": 1979,
      "especially": 1980,
      "Ġaway": 1981,
      "Ġ13": 1982,
      "Ġtypes": 1983,
      "ox": 1984,
      "Ġbuilding": 1985,
      "Ġtemper": 1986,
      "ĠCont": 1987,
      "ĠThat": 1988,
      "ĠRep": 1989,
      "16": 1990,
      "15": 1991,
      "ival": 1992,
      "Ã©": 1993,
      "wards": 1994,
      "Ġnational": 1995,
      "Ġ##": 1996,
      "ĠSu": 1997,
      "Ġeffects": 1998,
      "Ġrequire": 1999,
      "Ġer": 2000,
      "Ġcountries": 2001,
      "Ġnear": 2002,
      "Ġlive": 2003,
      "Ġleast": 2004,
      "AT": 2005,
      "Th": 2006,
      "Ġchall": 2007,
      "Ġkind": 2008,
      "17": 2009,
      "Ġ194": 2010,
      "ĠNorth": 2011,
      "Ġchem": 2012,
      "Ġdoc": 2013,
      "eb": 2014,
      "ĠÂ": 2015,
      "Ġann": 2016,
      "Ġsent": 2017,
      "Ġens": 2018,
      "Ġcells": 2019,
      "esc": 2020,
      "Ġnecess": 2021,
      "Ġgeneral": 2022,
      "light": 2023,
      "duc": 2024,
      "Ġmembers": 2025,
      "Ġchanges": 2026,
      "Ġans": 2027,
      "acc": 2028,
      "Ġsimilar": 2029,
      "ipp": 2030,
      "Ġliter": 2031,
      "Ġground": 2032,
      "aut": 2033,
      "Ġrange": 2034,
      "Ġword": 2035,
      "oney": 2036,
      "erence": 2037,
      "ush": 2038,
      "Ġcity": 2039,
      "alf": 2040,
      "ON": 2041,
      "Ġprop": 2042,
      "Ġfurther": 2043,
      "omes": 2044,
      "ĠWhile": 2045,
      "Ġevent": 2046,
      "Ġsingle": 2047,
      "Ġparents": 2048,
      "Ġself": 2049,
      "Ġey": 2050,
      "Ġanalysis": 2051,
      "Ġweek": 2052,
      "Ġconcept": 2053,
      "ges": 2054,
      "ĠTr": 2055,
      "Ġresearc": 2056,
      "Ġ=": 2057,
      "Ġgre": 2058,
      "Ġinit": 2059,
      "most": 2060,
      "unt": 2061,
      "Ġhaving": 2062,
      "Ġhigher": 2063,
      "Ġgrowth": 2064,
      "Ġquality": 2065,
      "ĠResear": 2066,
      "for": 2067,
      "Ġspace": 2068,
      "Ġgoing": 2069,
      "aff": 2070,
      "Ġespecially": 2071,
      "ĠGerm": 2072,
      "Ġeff": 2073,
      "thing": 2074,
      "ptoms": 2075,
      "Ġstudies": 2076,
      "ules": 2077,
      "ency": 2078,
      "Ġdig": 2079,
      "Ġgroups": 2080,
      "ĠInt": 2081,
      "ney": 2082,
      "Ġnever": 2083,
      "ES": 2084,
      "ĠNe": 2085,
      "Ġdam": 2086,
      "ibility": 2087,
      "rams": 2088,
      "yle": 2089,
      "Ġenough": 2090,
      "Ġbir": 2091,
      "ĠHealth": 2092,
      "Ġunderstanding": 2093,
      "rug": 2094,
      "14": 2095,
      "ze": 2096,
      "Ġtradition": 2097,
      "ires": 2098,
      "Ġhtt": 2099,
      "Ġphot": 2100,
      "Ġphysical": 2101,
      "Ġbelow": 2102,
      "Ġmeet": 2103,
      "Ġbig": 2104,
      "ĠDep": 2105,
      "Ġfri": 2106,
      "iol": 2107,
      "ĠCount": 2108,
      "Ġcoll": 2109,
      "Ġactivity": 2110,
      "Ġpublished": 2111,
      "omet": 2112,
      "selves": 2113,
      "ables": 2114,
      "Ġi": 2115,
      "ĠState": 2116,
      "Ġopportun": 2117,
      "ification": 2118,
      "Ġnet": 2119,
      "ee": 2120,
      "bon": 2121,
      "Ġprotect": 2122,
      "uation": 2123,
      "verage": 2124,
      "Ġfamil": 2125,
      "Ġcollect": 2126,
      "ĠRec": 2127,
      "aim": 2128,
      "Ġissues": 2129,
      "Ġconcer": 2130,
      "Ġnut": 2131,
      "ĠEar": 2132,
      "artment": 2133,
      "Ġmakes": 2134,
      "overed": 2135,
      "Ġemploy": 2136,
      "Ġfall": 2137,
      "Ġdeveloped": 2138,
      "Ġrelationship": 2139,
      "ĠEduc": 2140,
      "ask": 2141,
      "AR": 2142,
      "Ġfive": 2143,
      "Ġaccount": 2144,
      "ĠMe": 2145,
      "Ġcontain": 2146,
      "ĠPar": 2147,
      "eds": 2148,
      "oon": 2149,
      "ĠPre": 2150,
      "Ġconsider": 2151,
      "ĠEm": 2152,
      "Ġhowever": 2153,
      "rial": 2154,
      "Ġsite": 2155,
      "Ġdetail": 2156,
      "Ġseen": 2157,
      "ibr": 2158,
      "Ġsens": 2159,
      "Ġpolitical": 2160,
      "edi": 2161,
      "Ġsource": 2162,
      "sych": 2163,
      "Ġpractice": 2164,
      "ĠSoc": 2165,
      "Ġstat": 2166,
      "Ġreason": 2167,
      "ĠPe": 2168,
      "Ġfilm": 2169,
      "Ġindic": 2170,
      "ips": 2171,
      "Ġmanagement": 2172,
      "Ġmind": 2173,
      "Ġstrateg": 2174,
      "Ġdone": 2175,
      "Ġquestion": 2176,
      "Ġlot": 2177,
      "urb": 2178,
      "Ġsure": 2179,
      "Ġclose": 2180,
      "ĠYork": 2181,
      "Ġarch": 2182,
      "Ġservice": 2183,
      "fact": 2184,
      "arr": 2185,
      "Ġfield": 2186,
      "ivil": 2187,
      "Ġservices": 2188,
      "apan": 2189,
      "ĠAustral": 2190,
      "Ġlower": 2191,
      "amm": 2192,
      "Ġneg": 2193,
      "Ġmodel": 2194,
      "Ġfish": 2195,
      "Ġtell": 2196,
      "Ġarticle": 2197,
      "fer": 2198,
      "ule": 2199,
      "ready": 2200,
      "ĠPart": 2201,
      "Ġge": 2202,
      "ety": 2203,
      "Ġport": 2204,
      "Ġnorm": 2205,
      "Ġvalue": 2206,
      "Ġprovides": 2207,
      "sh": 2208,
      "icro": 2209,
      "Ġwhether": 2210,
      "ournal": 2211,
      "Ġcases": 2212,
      "Ġaddress": 2213,
      "Ġdeg": 2214,
      "itary": 2215,
      "ĠAcc": 2216,
      "Ġincludes": 2217,
      "Ġseries": 2218,
      "ening": 2219,
      "put": 2220,
      "Ġpersonal": 2221,
      "Ġla": 2222,
      "Ġcompet": 2223,
      "Ġwin": 2224,
      "ership": 2225,
      "Ġbegan": 2226,
      "Ġpred": 2227,
      "ography": 2228,
      "13": 2229,
      "ites": 2230,
      "AS": 2231,
      "val": 2232,
      "epend": 2233,
      "Ġproducts": 2234,
      "Ġtot": 2235,
      "Ġhold": 2236,
      "ĠPer": 2237,
      "Ġreally": 2238,
      "Ġopt": 2239,
      "Ġrelig": 2240,
      "IN": 2241,
      "ĠâĢ¢": 2242,
      "Ġsound": 2243,
      "In": 2244,
      "Ġeconomic": 2245,
      "ĠKe": 2246,
      "Ġmedical": 2247,
      "Ġcreated": 2248,
      "rect": 2249,
      "Ġwide": 2250,
      "sequ": 2251,
      "Ġreading": 2252,
      "sc": 2253,
      "Ġsymptoms": 2254,
      "Ġwind": 2255,
      "Ġvers": 2256,
      "go": 2257,
      "Ġred": 2258,
      "Ġcompany": 2259,
      "Ġpotential": 2260,
      "iences": 2261,
      "Ġ/": 2262,
      "ĠCo": 2263,
      "ĠWill": 2264,
      "Ġcut": 2265,
      "Ġengine": 2266,
      "hib": 2267,
      "Ġeither": 2268,
      "Ġtaken": 2269,
      "....": 2270,
      "Ġpurp": 2271,
      "Ġalready": 2272,
      "ences": 2273,
      "wh": 2274,
      "amed": 2275,
      "ervation": 2276,
      "Ġlink": 2277,
      "abor": 2278,
      "Ġmass": 2279,
      "Ġmodern": 2280,
      "Ġschools": 2281,
      "Ġrather": 2282,
      "Ġloss": 2283,
      "Ġglobal": 2284,
      "Ġreturn": 2285,
      "Ġwritten": 2286,
      "Ġrelated": 2287,
      "Ġrequired": 2288,
      "ores": 2289,
      "Ġflu": 2290,
      "Ġ100": 2291,
      "Ġadult": 2292,
      "Ġmarket": 2293,
      "Ġclimate": 2294,
      "ĠII": 2295,
      "uestion": 2296,
      "Ġaccording": 2297,
      "estern": 2298,
      "ivity": 2299,
      "Ġliving": 2300,
      "Ġpoin": 2301,
      "eter": 2302,
      "Ġevidence": 2303,
      "Ġce": 2304,
      "Ġonce": 2305,
      "usion": 2306,
      "ises": 2307,
      "ister": 2308,
      "Ġfail": 2309,
      "Ġability": 2310,
      "ĠApp": 2311,
      "Ġbar": 2312,
      "utions": 2313,
      "Ġmaterials": 2314,
      "att": 2315,
      "Ġcomplex": 2316,
      "ensive": 2317,
      "leep": 2318,
      "Ġarr": 2319,
      "uel": 2320,
      "reg": 2321,
      "Ġdiet": 2322,
      "ĠAc": 2323,
      "ada": 2324,
      "ĠGra": 2325,
      "ls": 2326,
      "Ġcat": 2327,
      "aging": 2328,
      "Ġwhole": 2329,
      "Ġcancer": 2330,
      "Ġnature": 2331,
      "itute": 2332,
      "Ġfarm": 2333,
      "Ġsurface": 2334,
      "idge": 2335,
      "illed": 2336,
      "lying": 2337,
      "ĠChild": 2338,
      "aged": 2339,
      "iction": 2340,
      "ĠSec": 2341,
      "acks": 2342,
      "ĠAmerica": 2343,
      "Ġresearchers": 2344,
      "EN": 2345,
      "Ġteachers": 2346,
      "Ġcy": 2347,
      "roll": 2348,
      "minist": 2349,
      "Ġfrequ": 2350,
      "Ġclear": 2351,
      "ese": 2352,
      "Ġreview": 2353,
      "utes": 2354,
      "Ġsimple": 2355,
      "Ġanimals": 2356,
      "oose": 2357,
      "ĠJapan": 2358,
      "urity": 2359,
      "AN": 2360,
      "Ġpatients": 2361,
      "ĠResearch": 2362,
      "Ġrecomm": 2363,
      "Ġcame": 2364,
      "ĠBritish": 2365,
      "Ġdom": 2366,
      "iddle": 2367,
      "Ġstates": 2368,
      "lease": 2369,
      "ricult": 2370,
      "reme": 2371,
      "Ġreact": 2372,
      "ĠArt": 2373,
      "based": 2374,
      "Ġwhite": 2375,
      "nces": 2376,
      "Ġrate": 2377,
      "Ġregion": 2378,
      "Ġskin": 2379,
      "ender": 2380,
      "Ġver": 2381,
      "Ġrepl": 2382,
      "Ġonline": 2383,
      "Ġvide": 2384,
      "Ġ25": 2385,
      "Ġwrite": 2386,
      "ony": 2387,
      "Ġparts": 2388,
      "Ġterms": 2389,
      "izing": 2390,
      "ened": 2391,
      "Ġtit": 2392,
      "Ġstructure": 2393,
      "Ġcamp": 2394,
      "Ġhealthy": 2395,
      "like": 2396,
      "ming": 2397,
      "Ġabs": 2398,
      "Ġ50": 2399,
      "ster": 2400,
      "Ġcontent": 2401,
      "alt": 2402,
      "Ġapproach": 2403,
      "cil": 2404,
      "Ġposition": 2405,
      "Ġfru": 2406,
      "ene": 2407,
      "ĠX": 2408,
      "**,": 2409,
      "',": 2410,
      "ĠFl": 2411,
      "ropri": 2412,
      "22": 2413,
      "ches": 2414,
      "useum": 2415,
      "gest": 2416,
      "oor": 2417,
      "Ġlove": 2418,
      "Ġconc": 2419,
      "urs": 2420,
      "rown": 2421,
      "Ġassess": 2422,
      "Ġsociety": 2423,
      "Ġprovided": 2424,
      "istics": 2425,
      "Ġfr": 2426,
      "Ġprob": 2427,
      ".)": 2428,
      "osis": 2429,
      "rast": 2430,
      "Ġdog": 2431,
      "Ġblack": 2432,
      "Ġreflect": 2433,
      "Ġoriginal": 2434,
      "Ġmonths": 2435,
      "Ġjob": 2436,
      "ume": 2437,
      "Ġsuper": 2438,
      "Ġreduce": 2439,
      "Ġlay": 2440,
      "Ġmeaning": 2441,
      "ground": 2442,
      "Ġrights": 2443,
      "enn": 2444,
      "Ġideas": 2445,
      "pro": 2446,
      "ĠSy": 2447,
      "Ġpressure": 2448,
      "Ġcolor": 2449,
      "Ġsoil": 2450,
      "Ġbuilt": 2451,
      "Ġenvironmental": 2452,
      "my": 2453,
      "Ġmor": 2454,
      "Ġneeded": 2455,
      "ĠTra": 2456,
      "ĠEd": 2457,
      "Ġfig": 2458,
      "Ġsix": 2459,
      "aily": 2460,
      "itud": 2461,
      "ops": 2462,
      "Ġassociated": 2463,
      "chan": 2464,
      "oard": 2465,
      "Ġsubst": 2466,
      "Ġarg": 2467,
      "Ġprinc": 2468,
      "Ġquick": 2469,
      "Ġidea": 2470,
      "Ġconsidered": 2471,
      "apt": 2472,
      "ĠMin": 2473,
      "Ġpattern": 2474,
      "ging": 2475,
      "Ġsize": 2476,
      "ĠEarth": 2477,
      "Ġthroughout": 2478,
      "Ġshows": 2479,
      "onse": 2480,
      "Ġdest": 2481,
      "ctor": 2482,
      "Ġdrug": 2483,
      "ump": 2484,
      "ength": 2485,
      "Ġpay": 2486,
      "oll": 2487,
      "Ġexerc": 2488,
      "hel": 2489,
      "Ġcannot": 2490,
      "erson": 2491,
      "Ġcontribut": 2492,
      "Ġconduct": 2493,
      "Ġstress": 2494,
      "abit": 2495,
      "Ġdesigned": 2496,
      "ript": 2497,
      "Ġpositive": 2498,
      "Ġemer": 2499,
      "ĠMany": 2500,
      "ĠNot": 2501,
      "Ġpage": 2502,
      "Ġthemselves": 2503,
      "Ġincreased": 2504,
      "rench": 2505,
      "imately": 2506,
      "amin": 2507,
      "Ġtook": 2508,
      "uk": 2509,
      "ĠPres": 2510,
      "Ġencoura": 2511,
      "Ġfire": 2512,
      "Ġep": 2513,
      "fficient": 2514,
      "room": 2515,
      "Ġfeed": 2516,
      "Ġhalf": 2517,
      "Ġoil": 2518,
      "Ġpriv": 2519,
      "OR": 2520,
      "ĠYour": 2521,
      "Ġcomes": 2522,
      "anced": 2523,
      "erve": 2524,
      "Ġindustry": 2525,
      "Ch": 2526,
      "Ġmoney": 2527,
      "Ġthought": 2528,
      "elling": 2529,
      "Ġevents": 2530,
      "Ġsun": 2531,
      "Ġactually": 2532,
      "osition": 2533,
      "Ġâ": 2534,
      "ĠEl": 2535,
      "ĠRead": 2536,
      "ched": 2537,
      "uary": 2538,
      "Ġavoid": 2539,
      "Ġri": 2540,
      "rel": 2541,
      "asc": 2542,
      "Ġaction": 2543,
      "ĠJan": 2544,
      "Ġrev": 2545,
      "itution": 2546,
      "Ġlives": 2547,
      "ugust": 2548,
      "Ġentire": 2549,
      "hood": 2550,
      "ections": 2551,
      "ĠMy": 2552,
      "ĠMus": 2553,
      "vere": 2554,
      "Ġtraining": 2555,
      "ĠEducation": 2556,
      "Ġcondition": 2557,
      "Ġdocument": 2558,
      "Ans": 2559,
      "Ġorigin": 2560,
      "hing": 2561,
      "Ġnecessary": 2562,
      "Ġfoot": 2563,
      "Ġgreen": 2564,
      "Ġcomputer": 2565,
      "Ġ24": 2566,
      "Ġtravel": 2567,
      "Ġculture": 2568,
      "Question": 2569,
      "Ġinternational": 2570,
      "Ġalmost": 2571,
      "ĠScience": 2572,
      "Ġtalk": 2573,
      "Ġsuff": 2574,
      "ĠJu": 2575,
      "hold": 2576,
      "Ġinteract": 2577,
      "ights": 2578,
      "ana": 2579,
      "---|": 2580,
      "Ġjoin": 2581,
      "Ġincluded": 2582,
      "Ġproduce": 2583,
      "Answer": 2584,
      "vey": 2585,
      "empt": 2586,
      "Ġtown": 2587,
      "Ġprevious": 2588,
      "Ġsepar": 2589,
      "gar": 2590,
      "icles": 2591,
      "Ġclean": 2592,
      "lin": 2593,
      "Ġupon": 2594,
      "pril": 2595,
      "Ġinteg": 2596,
      "Ġregard": 2597,
      "ĠMore": 2598,
      "Ġtotal": 2599,
      "ows": 2600,
      "Ġpath": 2601,
      "oring": 2602,
      "ĠMarch": 2603,
      "ift": 2604,
      "Ġprograms": 2605,
      "oses": 2606,
      "ulations": 2607,
      "21": 2608,
      "lands": 2609,
      "Ġpopular": 2610,
      "ma": 2611,
      "ĠĠĊĠ": 2612,
      "Ġfactors": 2613,
      "Ġbroad": 2614,
      "Ġindividuals": 2615,
      "ederal": 2616,
      "ĠCons": 2617,
      "Ġmeasure": 2618,
      "Ġever": 2619,
      "ĠMost": 2620,
      "Ġsat": 2621,
      "uck": 2622,
      "astic": 2623,
      "rad": 2624,
      "Ġinj": 2625,
      "Ġchemical": 2626,
      "Ġproduced": 2627,
      "\".": 2628,
      "ĠFrom": 2629,
      "ĠIndia": 2630,
      "ĠOver": 2631,
      "Ġfat": 2632,
      "IS": 2633,
      "Ġbring": 2634,
      "aving": 2635,
      "lex": 2636,
      "Ġbat": 2637,
      "Ġcop": 2638,
      "ĠReg": 2639,
      "lt": 2640,
      "Ġste": 2641,
      "irm": 2642,
      "Ġactive": 2643,
      "Ġvariety": 2644,
      "mb": 2645,
      "Ġteaching": 2646,
      "ĠKing": 2647,
      "Ġmedia": 2648,
      "ĠLear": 2649,
      "ĠCity": 2650,
      "ĠOther": 2651,
      "Ġled": 2652,
      "ĠSw": 2653,
      "ĠBr": 2654,
      "Ġcontact": 2655,
      "ĠUs": 2656,
      "Ġanc": 2657,
      "Ġcheck": 2658,
      "Ġcalc": 2659,
      "Ġetc": 2660,
      "erous": 2661,
      "het": 2662,
      "rior": 2663,
      "Ġregular": 2664,
      "ĠChar": 2665,
      "23": 2666,
      "Ġtaking": 2667,
      "Ġbooks": 2668,
      "Ġitself": 2669,
      "Ġ2010": 2670,
      "Ġsurv": 2671,
      "atives": 2672,
      "ĠCenter": 2673,
      "Ġtri": 2674,
      "Ġsafe": 2675,
      "25": 2676,
      "ternal": 2677,
      "Ġdeep": 2678,
      "Ġgas": 2679,
      "itation": 2680,
      "Ġbehavior": 2681,
      "Ġsense": 2682,
      "ĠAlthough": 2683,
      "order": 2684,
      "ĠCO": 2685,
      "ĠGl": 2686,
      "Ġmother": 2687,
      "ĠJune": 2688,
      "Ġpict": 2689,
      "ĠServ": 2690,
      "play": 2691,
      "Ġcultural": 2692,
      "Ġdeb": 2693,
      "Ġemot": 2694,
      "Ġchalleng": 2695,
      "Ġtar": 2696,
      "Ġweight": 2697,
      "Ġcauses": 2698,
      "ply": 2699,
      "rs": 2700,
      "raft": 2701,
      "Ġhours": 2702,
      "eration": 2703,
      "Ġsqu": 2704,
      "ille": 2705,
      "Ġheld": 2706,
      "Ġdemon": 2707,
      "umb": 2708,
      "Ġvisit": 2709,
      "Ġremain": 2710,
      "Ġrecent": 2711,
      "ĠAg": 2712,
      "Ġshare": 2713,
      "Ġincreasing": 2714,
      "ĠSept": 2715,
      "Ġobserv": 2716,
      "Ġperformance": 2717,
      "Ġsources": 2718,
      "pe": 2719,
      "ĠColle": 2720,
      "ĠHer": 2721,
      "fully": 2722,
      "Ġbasic": 2723,
      "Ġinvolved": 2724,
      "Ġpolicy": 2725,
      "mar": 2726,
      "Ġborn": 2727,
      "ĠBar": 2728,
      "Ġviol": 2729,
      "Ġidentify": 2730,
      "Ġbreak": 2731,
      "Ġsomet": 2732,
      "Ġassist": 2733,
      "Ġsleep": 2734,
      "Ġfa": 2735,
      "Ġcover": 2736,
      "Ġstandard": 2737,
      "ades": 2738,
      "Ġmethods": 2739,
      "ĠDuring": 2740,
      "Ġprogress": 2741,
      "ĠCounty": 2742,
      "ino": 2743,
      "Ġsoft": 2744,
      "ief": 2745,
      "iment": 2746,
      "Ġlonger": 2747,
      "ĠAccording": 2748,
      "Ġaware": 2749,
      "urg": 2750,
      "Ġhelps": 2751,
      "Ġdraw": 2752,
      "Ġimplement": 2753,
      "reng": 2754,
      "Ġeasy": 2755,
      "Ġaccept": 2756,
      "Ġlocated": 2757,
      "Ġachieve": 2758,
      "Ġseason": 2759,
      "ufact": 2760,
      "ĠHigh": 2761,
      "Ġfeatures": 2762,
      "Ġaverage": 2763,
      "ĠOct": 2764,
      "Ġbal": 2765,
      "Ġsust": 2766,
      "Ġfem": 2767,
      "arily": 2768,
      "ĠHar": 2769,
      "ancial": 2770,
      "Ġ193": 2771,
      "Ġmedic": 2772,
      "Ġensure": 2773,
      "Ġspread": 2774,
      "ropriate": 2775,
      "na": 2776,
      "Ġanimal": 2777,
      "Ġcoun": 2778,
      "ĠSm": 2779,
      "ĠFirst": 2780,
      "ĠMon": 2781,
      "ĠOf": 2782,
      "ĠHere": 2783,
      "Ġlate": 2784,
      "Ġ195": 2785,
      "Ġestablished": 2786,
      "Ġcaused": 2787,
      "know": 2788,
      "Ġap": 2789,
      "Ġwild": 2790,
      "Ġshown": 2791,
      "Ġmovement": 2792,
      "Ġdoing": 2793,
      "Ġsong": 2794,
      "Ġrespect": 2795,
      "reet": 2796,
      "Ġwebs": 2797,
      "Ġpsych": 2798,
      "Ġstop": 2799,
      "Ġprofessional": 2800,
      "ĠHistory": 2801,
      "Ġcareer": 2802,
      "Ġ2012": 2803,
      "Ġaud": 2804,
      "Ġcommit": 2805,
      "Ġclaim": 2806,
      "Ġsafety": 2807,
      "24": 2808,
      "Ġmach": 2809,
      "verse": 2810,
      "ĠOur": 2811,
      "iforn": 2812,
      "________________": 2813,
      "Ġ,": 2814,
      "Ġheav": 2815,
      "Ġissue": 2816,
      "Ġbur": 2817,
      "Ġattention": 2818,
      "Ġresponse": 2819,
      "apter": 2820,
      "Ġroad": 2821,
      "Ġpoll": 2822,
      "Ġoutside": 2823,
      "Ġexpress": 2824,
      "Ġut": 2825,
      "Ġmember": 2826,
      "Ġtools": 2827,
      "ĠDepartment": 2828,
      "Ġtree": 2829,
      "ĠAugust": 2830,
      "Ġsometimes": 2831,
      "199": 2832,
      "Ġelectric": 2833,
      "ĠWilliam": 2834,
      "Ġreceived": 2835,
      "Ġcritical": 2836,
      "Ġprimary": 2837,
      "ribution": 2838,
      "Ġtemperature": 2839,
      "Ġprec": 2840,
      "ĠWest": 2841,
      "Ġleading": 2842,
      "Ġfamilies": 2843,
      "ĠCor": 2844,
      "ĠApril": 2845,
      "Ġsex": 2846,
      "Ġdefin": 2847,
      "ronic": 2848,
      "www": 2849,
      "Ġforms": 2850,
      "Ġuses": 2851,
      "Ġeat": 2852,
      "Ġselect": 2853,
      "ctions": 2854,
      "Ġmatter": 2855,
      "Ġprote": 2856,
      "udd": 2857,
      "Ġyet": 2858,
      "IC": 2859,
      "ĠFrench": 2860,
      "ĠTw": 2861,
      "Ġdeveloping": 2862,
      "ham": 2863,
      "ID": 2864,
      "âĢ¦âĢ¦": 2865,
      "mon": 2866,
      "Ġcontinue": 2867,
      "Ġnumbers": 2868,
      "aries": 2869,
      "aches": 2870,
      "ball": 2871,
      "ĠInternational": 2872,
      "Ġ2011": 2873,
      "ĠRiver": 2874,
      "Ġ\\": 2875,
      "ached": 2876,
      "Ġcarbon": 2877,
      "Ġ+": 2878,
      "Ġthing": 2879,
      "ifornia": 2880,
      "dom": 2881,
      "new": 2882,
      "ĠJes": 2883,
      "oles": 2884,
      "Ġremov": 2885,
      "ulate": 2886,
      "NA": 2887,
      "Ġtraditional": 2888,
      "book": 2889,
      "ided": 2890,
      "ternet": 2891,
      "Ġcompan": 2892,
      "Ġserved": 2893,
      "imin": 2894,
      "nov": 2895,
      "Ġmultiple": 2896,
      "eed": 2897,
      "rought": 2898,
      "istry": 2899,
      "ĠJew": 2900,
      "Ġsold": 2901,
      "Ġmechan": 2902,
      "Ġexc": 2903,
      "Ġtrue": 2904,
      "iter": 2905,
      "Ġnight": 2906,
      "ĠProg": 2907,
      "hemat": 2908,
      "Ġdaily": 2909,
      "Ġprep": 2910,
      "Ġrout": 2911,
      "Ġfoods": 2912,
      "Ġvideo": 2913,
      "Ġindepend": 2914,
      "Ġgame": 2915,
      "bol": 2916,
      "ĠPark": 2917,
      "aling": 2918,
      "Ġvari": 2919,
      "Ġslow": 2920,
      "Ġteacher": 2921,
      "ĠDav": 2922,
      "Ġfeet": 2923,
      "Ġbelieve": 2924,
      "ĠJuly": 2925,
      "Ġharm": 2926,
      "arden": 2927,
      "Ġbenefits": 2928,
      "aul": 2929,
      "Ġsil": 2930,
      "Ġsomeone": 2931,
      "ura": 2932,
      "Ġgrowing": 2933,
      "Ġtheory": 2934,
      "Ġstreng": 2935,
      "Ġtarget": 2936,
      "Ġadditional": 2937,
      "cember": 2938,
      "Ġcompon": 2939,
      "Ġ21": 2940,
      "Ġdiagn": 2941,
      "ĠInstitute": 2942,
      "St": 2943,
      "fect": 2944,
      "osing": 2945,
      "ĠWhy": 2946,
      "Ġwood": 2947,
      "Ġparticularly": 2948,
      "ari": 2949,
      "issions": 2950,
      "Ġrefer": 2951,
      "isions": 2952,
      "ĠCommun": 2953,
      "ĠAssoci": 2954,
      "Ġeval": 2955,
      "Ġattempt": 2956,
      "Ġbra": 2957,
      "ĠCalifornia": 2958,
      "Ġaff": 2959,
      "Ġpoints": 2960,
      "oe": 2961,
      "Ġstarted": 2962,
      "Ġlog": 2963,
      "Ġvacc": 2964,
      "iques": 2965,
      "ĠDevelop": 2966,
      "Ġtax": 2967,
      "ovember": 2968,
      "Ġscientists": 2969,
      "Ġlack": 2970,
      "Ġappl": 2971,
      "Ġseem": 2972,
      "Ġtrees": 2973,
      "AL": 2974,
      "ĠInc": 2975,
      "ĠSeptember": 2976,
      "Ġthinking": 2977,
      "Ġanswer": 2978,
      "Ġthreat": 2979,
      "Ġsection": 2980,
      "bor": 2981,
      "Ġrelative": 2982,
      "AC": 2983,
      "Ġsimply": 2984,
      "Ã¡": 2985,
      "vant": 2986,
      "Ġcust": 2987,
      "Ġcorrect": 2988,
      "Ġface": 2989,
      "Ġmanufact": 2990,
      "Ġinvestig": 2991,
      "ription": 2992,
      "cell": 2993,
      "Ġpoor": 2994,
      "This": 2995,
      "Ġminutes": 2996,
      "Ġscientific": 2997,
      "Ġmilitary": 2998,
      "aly": 2999,
      "Ġeth": 3000,
      "Ġofficial": 3001,
      "Ġconsist": 3002,
      "ĠDist": 3003,
      "Ġ40": 3004,
      "Ġstaff": 3005,
      "Ġmess": 3006,
      "ĠQu": 3007,
      "uge": 3008,
      "Ġcivil": 3009,
      "cies": 3010,
      "ington": 3011,
      "Ġbab": 3012,
      "Ġvill": 3013,
      "Ġbacter": 3014,
      "ara": 3015,
      "ss": 3016,
      "hens": 3017,
      "Ġthird": 3018,
      "Ġacadem": 3019,
      "IT": 3020,
      "oices": 3021,
      "rated": 3022,
      "Ġearth": 3023,
      "ĠIndian": 3024,
      "Ġdemonstr": 3025,
      "Ġcit": 3026,
      "Ġnormal": 3027,
      "à¤": 3028,
      "ĠBec": 3029,
      "Ġlat": 3030,
      "irit": 3031,
      "ellow": 3032,
      "Ġcentral": 3033,
      "itect": 3034,
      "imum": 3035,
      "asons": 3036,
      "Ġessential": 3037,
      "ĠFeb": 3038,
      "ford": 3039,
      "ĠChina": 3040,
      "Ġ2014": 3041,
      "Ġcapt": 3042,
      "Ġwon": 3043,
      "Ġfinal": 3044,
      "Ġ--": 3045,
      "ĠCour": 3046,
      "Wh": 3047,
      "Ġlength": 3048,
      "vention": 3049,
      "rew": 3050,
      "ounds": 3051,
      "Ġmaintain": 3052,
      "set": 3053,
      "ruary": 3054,
      "Ġadminist": 3055,
      "iency": 3056,
      "Ġserious": 3057,
      "Ġful": 3058,
      "Ġpurpose": 3059,
      "yr": 3060,
      "Ġhost": 3061,
      "Ġdiv": 3062,
      "Ġdoesn": 3063,
      "Ġextreme": 3064,
      "Ġtherap": 3065,
      "apers": 3066,
      "ĠFin": 3067,
      "Ġheat": 3068,
      "Ġsea": 3069,
      "Ġmental": 3070,
      "Ġdied": 3071,
      "Ġhistorical": 3072,
      "Ġir": 3073,
      "ĠGovern": 3074,
      "joy": 3075,
      "Ġcommunities": 3076,
      "Ġgenerally": 3077,
      "Ġveget": 3078,
      "Ġforest": 3079,
      "Ġ2013": 3080,
      "Ġnetwork": 3081,
      "Ġtakes": 3082,
      "Ġoffer": 3083,
      "Ġreleased": 3084,
      "ĠTrans": 3085,
      "ĠJesus": 3086,
      "Ġgradu": 3087,
      "Ġmicro": 3088,
      "Ġformer": 3089,
      "ĠMc": 3090,
      "Ġcross": 3091,
      "reek": 3092,
      "ha": 3093,
      "Ġson": 3094,
      "Ġnamed": 3095,
      "Ġkids": 3096,
      "Ġunique": 3097,
      "ĠTechn": 3098,
      "60": 3099,
      "Ġaim": 3100,
      "Ġaspect": 3101,
      "Ġ2015": 3102,
      "Ġimage": 3103,
      "Ġadded": 3104,
      "overy": 3105,
      "orthern": 3106,
      "ively": 3107,
      "Ġreported": 3108,
      "icip": 3109,
      "amb": 3110,
      "cks": 3111,
      "Ġaltern": 3112,
      "Ġ2009": 3113,
      "Ġearl": 3114,
      "Ġessays": 3115,
      "Ġdamage": 3116,
      "hest": 3117,
      "Ġgreater": 3118,
      "Ġlands": 3119,
      "ĠOctober": 3120,
      "Ġhyd": 3121,
      "ĠCoun": 3122,
      "uth": 3123,
      "Ġexamples": 3124,
      "Ġimportance": 3125,
      "aces": 3126,
      "alls": 3127,
      "itch": 3128,
      "elt": 3129,
      "ror": 3130,
      "inks": 3131,
      "Ġbase": 3132,
      "Ġnovel": 3133,
      "ceed": 3134,
      "ĠRuss": 3135,
      "Ġappropriate": 3136,
      "Ġemb": 3137,
      "ying": 3138,
      "ĠJanuary": 3139,
      "ension": 3140,
      "ĠCollege": 3141,
      "ext": 3142,
      "Ġcele": 3143,
      "ĠChildren": 3144,
      "Ġfav": 3145,
      "ĠMat": 3146,
      "Ġnorth": 3147,
      "Ġinstead": 3148,
      "Ġ:": 3149,
      "Ġfather": 3150,
      "ibrary": 3151,
      "Ġlo": 3152,
      "Ġgetting": 3153,
      "Ġlooking": 3154,
      "Ġwalk": 3155,
      "osure": 3156,
      "We": 3157,
      "eks": 3158,
      "ĠSince": 3159,
      "Ġfinancial": 3160,
      "ĠNow": 3161,
      "Ġsustain": 3162,
      "ĠLife": 3163,
      "Ġsal": 3164,
      "Ġeasily": 3165,
      "Ġhabit": 3166,
      "ondon": 3167,
      "Ġprincip": 3168,
      "ĠDay": 3169,
      "Ġprior": 3170,
      "Ġhttp": 3171,
      "Ġago": 3172,
      "Ġanaly": 3173,
      "Ġmagn": 3174,
      "Ġwaste": 3175,
      "Ġdifference": 3176,
      "ama": 3177,
      "Ġmix": 3178,
      "ĠWater": 3179,
      "load": 3180,
      "idents": 3181,
      "Ġ23": 3182,
      "Ġ2016": 3183,
      "cean": 3184,
      "Ġsouth": 3185,
      "ider": 3186,
      "ĠYear": 3187,
      "Ġleaves": 3188,
      "Ġdou": 3189,
      "ĠAre": 3190,
      "ĠProf": 3191,
      "Ġbehind": 3192,
      "ĠStudents": 3193,
      "Ġinfluence": 3194,
      "term": 3195,
      "back": 3196,
      "Ġdescribed": 3197,
      "Ġdirectly": 3198,
      "ĠEuropean": 3199,
      "ĠBu": 3200,
      "ĠHouse": 3201,
      "Ġagricult": 3202,
      "Ġfront": 3203,
      "ĠAnt": 3204,
      "ulated": 3205,
      "Ġtable": 3206,
      "inct": 3207,
      "ĠAfrican": 3208,
      "ĠWrit": 3209,
      "roduction": 3210,
      "Ġvirus": 3211,
      "Ġattack": 3212,
      "Ġacid": 3213,
      "Ġlimited": 3214,
      "It": 3215,
      "Ġillust": 3216,
      "Ġnews": 3217,
      "Ġlarger": 3218,
      "Ġcommunication": 3219,
      "Ġlines": 3220,
      "ĠUse": 3221,
      "Ġprobably": 3222,
      "ĠDecember": 3223,
      "ED": 3224,
      "Ġox": 3225,
      "**.": 3226,
      "Ġcontains": 3227,
      "Ġinside": 3228,
      "Ġquickly": 3229,
      "ION": 3230,
      "ners": 3231,
      "ĠSan": 3232,
      "Ġtransport": 3233,
      "ucle": 3234,
      "Ġfriends": 3235,
      "gency": 3236,
      "Ġimmedi": 3237,
      "ĠBi": 3238,
      "Ġquant": 3239,
      "Ġstra": 3240,
      "40": 3241,
      "Ġforce": 3242,
      "bum": 3243,
      "outhern": 3244,
      "ĠNovember": 3245,
      "Ġtrack": 3246,
      "ius": 3247,
      "water": 3248,
      "Ġten": 3249,
      "Ġstay": 3250,
      "Ġreve": 3251,
      "chol": 3252,
      "rick": 3253,
      "\",": 3254,
      "Ġcollection": 3255,
      "ira": 3256,
      "iece": 3257,
      "Ġbehavi": 3258,
      "Ġjud": 3259,
      "itude": 3260,
      "Ġguide": 3261,
      "Ġnegative": 3262,
      "Ġsn": 3263,
      "Ġhon": 3264,
      "anks": 3265,
      "abet": 3266,
      "Ġsoon": 3267,
      "where": 3268,
      "Ġquite": 3269,
      "rate": 3270,
      "Ġlif": 3271,
      "80": 3272,
      "Ġallows": 3273,
      "Ġwebsite": 3274,
      "Ġstyle": 3275,
      "Ġcompanies": 3276,
      "Ġhands": 3277,
      "Ġelements": 3278,
      "Ġhar": 3279,
      "iles": 3280,
      "Ġdiseases": 3281,
      "Ġconflic": 3282,
      "son": 3283,
      "Ġmount": 3284,
      "Ġund": 3285,
      "Ġvia": 3286,
      "ĠAfrica": 3287,
      "Ġenjoy": 3288,
      "ĠPublic": 3289,
      "Ġlost": 3290,
      "ĠGerman": 3291,
      "ĠPeople": 3292,
      "Ġhor": 3293,
      "aught": 3294,
      "lation": 3295,
      "Ġtechniques": 3296,
      "lev": 3297,
      "ague": 3298,
      "Ġwhose": 3299,
      "ĠVal": 3300,
      "Ġdetermine": 3301,
      "Ġdang": 3302,
      "Ġconcent": 3303,
      "Ġgoal": 3304,
      "ĠSim": 3305,
      "ception": 3306,
      "Ġtowards": 3307,
      "year": 3308,
      "ica": 3309,
      "Ġweeks": 3310,
      "inese": 3311,
      "Ġexpect": 3312,
      "oming": 3313,
      "Ġorganiz": 3314,
      "iers": 3315,
      "Ġhy": 3316,
      "ĠEven": 3317,
      "ĠGeneral": 3318,
      "'re": 3319,
      "Ġresist": 3320,
      "Ġreligious": 3321,
      "Ġthous": 3322,
      "ords": 3323,
      "ties": 3324,
      "omas": 3325,
      "yond": 3326,
      "oud": 3327,
      "Ġbeginning": 3328,
      "Ġ22": 3329,
      "Ġcenter": 3330,
      "Ġwarm": 3331,
      "Ġremains": 3332,
      "inary": 3333,
      "Ġfram": 3334,
      "Ġchurch": 3335,
      "Ġadop": 3336,
      "Ġinsp": 3337,
      "ĠGreat": 3338,
      "Ġmemory": 3339,
      "Ġeducational": 3340,
      "olic": 3341,
      "rag": 3342,
      "Ġacqu": 3343,
      "ĠCanada": 3344,
      "ĠMary": 3345,
      "equ": 3346,
      "con": 3347,
      "Ġvalues": 3348,
      "ĠPresident": 3349,
      "omp": 3350,
      "Ġalthough": 3351,
      "Ġcred": 3352,
      "ĠMod": 3353,
      "ĠPhil": 3354,
      "Ġappe": 3355,
      "Ġbad": 3356,
      "rie": 3357,
      "Ġnation": 3358,
      "Ġwent": 3359,
      "Ġpack": 3360,
      "ĠDes": 3361,
      "Ġapprox": 3362,
      "Ġbirth": 3363,
      "ĠEngland": 3364,
      "Ġestablish": 3365,
      "Ġsurround": 3366,
      "Ġang": 3367,
      "Ġefforts": 3368,
      "Ġextra": 3369,
      "EC": 3370,
      "Ġcarry": 3371,
      "Ġcreating": 3372,
      "Ġhous": 3373,
      "ĠUnder": 3374,
      "Ġdecl": 3375,
      "come": 3376,
      "mission": 3377,
      "Ġprojects": 3378,
      "Ġcard": 3379,
      "omb": 3380,
      "Ġspeak": 3381,
      "ĠSum": 3382,
      "Ġsolar": 3383,
      "ĠAustralia": 3384,
      "ĠChe": 3385,
      "iot": 3386,
      "pid": 3387,
      "Ġwa": 3388,
      "Ġproced": 3389,
      "ĠFebruary": 3390,
      "Ġthus": 3391,
      "ĠHol": 3392,
      "Ġsevere": 3393,
      "Ġinfection": 3394,
      "Ġdoctor": 3395,
      "Ġdrink": 3396,
      "ĠWork": 3397,
      "Ġvoc": 3398,
      "ields": 3399,
      "ĠRed": 3400,
      "life": 3401,
      "ipment": 3402,
      "Ġmid": 3403,
      "ĠCur": 3404,
      "Ġhighly": 3405,
      "izes": 3406,
      "ĠEach": 3407,
      "unch": 3408,
      "ĠChurch": 3409,
      "Ġfollowed": 3410,
      "head": 3411,
      "Ġapplication": 3412,
      "Ġveh": 3413,
      "Ġadults": 3414,
      "Ġcrop": 3415,
      "isms": 3416,
      "Ġexercise": 3417,
      "Ġprivate": 3418,
      "Ġmiddle": 3419,
      "ĠEc": 3420,
      "Ġrequires": 3421,
      "Ġsituation": 3422,
      "Ġinterp": 3423,
      "Ġsecurity": 3424,
      "Ġuseful": 3425,
      "Ġlargest": 3426,
      "ĠMich": 3427,
      "itis": 3428,
      "undred": 3429,
      "Ġorganization": 3430,
      "Ġbul": 3431,
      "lection": 3432,
      "Ġsolution": 3433,
      "no": 3434,
      "haps": 3435,
      "Ġ2017": 3436,
      "Ġproviding": 3437,
      "Ġpromot": 3438,
      "ancy": 3439,
      "Ġbit": 3440,
      "Ġones": 3441,
      "pper": 3442,
      "ulum": 3443,
      "Ġrock": 3444,
      "Ġsupply": 3445,
      "ĠCouncil": 3446,
      "Ġconnect": 3447,
      "ĠSol": 3448,
      "Ġancient": 3449,
      "Ġhot": 3450,
      "ĠLondon": 3451,
      "ĠPat": 3452,
      "Ġvict": 3453,
      "rote": 3454,
      "Ġpatient": 3455,
      "Ġcustom": 3456,
      "Ġexplain": 3457,
      "cast": 3458,
      "Ġdecre": 3459,
      "Ġcapac": 3460,
      "olec": 3461,
      "ĠAssociation": 3462,
      "Ġtherefore": 3463,
      "ĠUK": 3464,
      "Ġinform": 3465,
      "su": 3466,
      "Ġmag": 3467,
      "Ġunit": 3468,
      "Ġassign": 3469,
      "Ġadj": 3470,
      "Ġconstruction": 3471,
      "iar": 3472,
      "ĠWash": 3473,
      "Ġ2008": 3474,
      "ĊĊ": 3475,
      "ico": 3476,
      "Ġsummer": 3477,
      "Ġrain": 3478,
      "wor": 3479,
      "ĠDon": 3480,
      "Ġsus": 3481,
      "Ġgot": 3482,
      "Ġstation": 3483,
      "Ġrespond": 3484,
      "Ġestim": 3485,
      "Ġinstall": 3486,
      "Ġ#": 3487,
      "Ġbecomes": 3488,
      "Ġder": 3489,
      "ĠTH": 3490,
      "ĠEast": 3491,
      "iber": 3492,
      "Ġlabor": 3493,
      "ologies": 3494,
      "rim": 3495,
      "Ġagree": 3496,
      "Ġx": 3497,
      "Ġcompared": 3498,
      "Ġtrade": 3499,
      "Ġmom": 3500,
      "Ġdry": 3501,
      "Ġguid": 3502,
      "rogen": 3503,
      "Ġfeature": 3504,
      "ospital": 3505,
      "ĠBecause": 3506,
      "oes": 3507,
      "Ġgives": 3508,
      "ĠLet": 3509,
      "Ġcru": 3510,
      "Ġdark": 3511,
      "uries": 3512,
      "oke": 3513,
      "ĠIts": 3514,
      "Ġsymbol": 3515,
      "Ġ26": 3516,
      "Ġprotection": 3517,
      "Ġmill": 3518,
      "Ġvisual": 3519,
      "ĠHum": 3520,
      "ĠDis": 3521,
      "Ġworked": 3522,
      "ĠMount": 3523,
      "Ġhumans": 3524,
      "Ġelse": 3525,
      "Ġplaces": 3526,
      "fort": 3527,
      "mary": 3528,
      "Ġopportunities": 3529,
      "Ġsaw": 3530,
      "Ġsearch": 3531,
      "Ġcapital": 3532,
      "Ġspeed": 3533,
      "Ġstage": 3534,
      "Ġcommunic": 3535,
      "Ġpen": 3536,
      "Ġbeaut": 3537,
      "ĠAlso": 3538,
      "porary": 3539,
      "phas": 3540,
      "Ġdecision": 3541,
      "Ġtopic": 3542,
      "Ġcollege": 3543,
      "Ġord": 3544,
      "resh": 3545,
      "ingu": 3546,
      "Ġcoast": 3547,
      "bit": 3548,
      "atur": 3549,
      "itable": 3550,
      "Ġrare": 3551,
      "vest": 3552,
      "Ġband": 3553,
      "Ġcontext": 3554,
      "Ġ2007": 3555,
      "Ġreceive": 3556,
      "70": 3557,
      "Ġstories": 3558,
      "Ġ...": 3559,
      "Ġenh": 3560,
      "Ġdemand": 3561,
      "coh": 3562,
      "oration": 3563,
      "Ġmonitor": 3564,
      "Ġhope": 3565,
      "Ġstandards": 3566,
      "Ġmention": 3567,
      "imal": 3568,
      "ĠFound": 3569,
      "Ġlocation": 3570,
      "Ġprocesses": 3571,
      "Ġarchitect": 3572,
      "ĠChristian": 3573,
      "Ġacademic": 3574,
      "time": 3575,
      "wers": 3576,
      "Ġeye": 3577,
      "Ġfit": 3578,
      "sect": 3579,
      "ĠRel": 3580,
      "Ġtend": 3581,
      "ĠEarly": 3582,
      "Ġimages": 3583,
      "Ġcurrently": 3584,
      "ĠThen": 3585,
      "Ġchoose": 3586,
      "Ġ2020": 3587,
      "IV": 3588,
      "Ġegg": 3589,
      "Ġblock": 3590,
      "Ġobjects": 3591,
      "arian": 3592,
      "que": 3593,
      "Ġreach": 3594,
      "Ġcollabor": 3595,
      "Ġcosts": 3596,
      "Ġdegree": 3597,
      "ĠSpec": 3598,
      "EM": 3599,
      "Ġcontinu": 3600,
      "Ġpractices": 3601,
      "Ġpan": 3602,
      "Ġtiss": 3603,
      "ĠAut": 3604,
      "ĠIr": 3605,
      "tee": 3606,
      "Ġstru": 3607,
      "ĠBro": 3608,
      "ĠBlack": 3609,
      "Ġtitle": 3610,
      "Ġ60": 3611,
      "Ġopportunity": 3612,
      "ĠJust": 3613,
      "Ġtypically": 3614,
      "ãģ": 3615,
      "ula": 3616,
      "orders": 3617,
      "Ġcitiz": 3618,
      "riculum": 3619,
      "Ġqual": 3620,
      "ky": 3621,
      "ĠGr": 3622,
      "airs": 3623,
      "Ġexact": 3624,
      "Ġdigital": 3625,
      "Ġstri": 3626,
      "Ġadvant": 3627,
      "enge": 3628,
      "Ġdisp": 3629,
      "Ġcra": 3630,
      "ĠIS": 3631,
      "Ġliterature": 3632,
      "Ġbreat": 3633,
      "26": 3634,
      "odies": 3635,
      "estic": 3636,
      "Ġsites": 3637,
      "Ġyourself": 3638,
      "ĠMiss": 3639,
      "Ġeveryone": 3640,
      "Ġult": 3641,
      "ously": 3642,
      "Ġasked": 3643,
      "OT": 3644,
      "ĠMuseum": 3645,
      "Ġnearly": 3646,
      "Ġeating": 3647,
      "ĠRoman": 3648,
      "Ġincor": 3649,
      "Ġseek": 3650,
      "ĠSystem": 3651,
      "Â°": 3652,
      "ĠProgram": 3653,
      "Ġfederal": 3654,
      "Ġcolon": 3655,
      "Ġexpected": 3656,
      "Ġbott": 3657,
      "Ġcou": 3658,
      "ald": 3659,
      "Ġproperty": 3660,
      "Ġdate": 3661,
      "ube": 3662,
      "cial": 3663,
      "Ġking": 3664,
      "Ġfight": 3665,
      "rief": 3666,
      "Ġequipment": 3667,
      "Ġmiles": 3668,
      "Ġpet": 3669,
      "off": 3670,
      "Ġrules": 3671,
      "Ġplayed": 3672,
      "Ġlegal": 3673,
      "Ġresponsible": 3674,
      "vert": 3675,
      "Ġplaced": 3676,
      "Ġbrought": 3677,
      "ĠJames": 3678,
      "Ġbasis": 3679,
      "ĠPress": 3680,
      "aced": 3681,
      "Ġneigh": 3682,
      "Ġsoftware": 3683,
      "Ġimag": 3684,
      "edia": 3685,
      "aur": 3686,
      "Ġshall": 3687,
      "Ġ28": 3688,
      "see": 3689,
      "ĠInter": 3690,
      "uments": 3691,
      "Ġtoward": 3692,
      "Ġcontinued": 3693,
      "Ġconstruct": 3694,
      "ĠDevelopment": 3695,
      "ribute": 3696,
      "nam": 3697,
      "ĠChinese": 3698,
      "Ġsitu": 3699,
      "Ġbirds": 3700,
      "rael": 3701,
      "Ġhundred": 3702,
      "Ġchallenges": 3703,
      "ev": 3704,
      "Ġsuccessful": 3705,
      "Ġcold": 3706,
      "Ġgold": 3707,
      "Ġeconomy": 3708,
      "rong": 3709,
      "Ġweb": 3710,
      "Ġdevices": 3711,
      "men": 3712,
      "Ġtur": 3713,
      "ĠLaw": 3714,
      "Ġworkers": 3715,
      "ĠSub": 3716,
      "ĠOut": 3717,
      "Ġkill": 3718,
      "ought": 3719,
      "EL": 3720,
      "Ġeverything": 3721,
      "Ġmathemat": 3722,
      "rical": 3723,
      "Ġeight": 3724,
      "Ġshape": 3725,
      "Ġ2006": 3726,
      "used": 3727,
      "era": 3728,
      "orge": 3729,
      "Ġcelebr": 3730,
      "Ġfast": 3731,
      "Ġ27": 3732,
      "aint": 3733,
      "Ġeyes": 3734,
      "bre": 3735,
      "ĠMor": 3736,
      "Ġclin": 3737,
      "Ġprin": 3738,
      "Ġtold": 3739,
      "Ġemail": 3740,
      "ype": 3741,
      "ech": 3742,
      "Ġdetails": 3743,
      "Ġrich": 3744,
      "Ġ2000": 3745,
      "gn": 3746,
      "Ġwoman": 3747,
      "Ġvit": 3748,
      "li": 3749,
      "ste": 3750,
      "ests": 3751,
      "Ġice": 3752,
      "ĠVol": 3753,
      "Ġversion": 3754,
      "Ġrapid": 3755,
      "ĠWashington": 3756,
      "Ġoverall": 3757,
      "ĠTod": 3758,
      "Ġexhib": 3759,
      "Ġpurch": 3760,
      "Ġ190": 3761,
      "wise": 3762,
      "hy": 3763,
      "ĠCare": 3764,
      "ĠAmericans": 3765,
      "ĠMil": 3766,
      "Ġdead": 3767,
      "Ġfuel": 3768,
      "ĠVir": 3769,
      "Ġidentified": 3770,
      "ĠFood": 3771,
      "Ġeffort": 3772,
      "ĠAv": 3773,
      "Ġimpl": 3774,
      "Ġstrategies": 3775,
      "ĠSur": 3776,
      "Ġcast": 3777,
      "ession": 3778,
      "Ġbeyond": 3779,
      "Ġclassroom": 3780,
      "Ġforces": 3781,
      "Ġexec": 3782,
      "Ġdepend": 3783,
      "cles": 3784,
      "rig": 3785,
      "Ġemphas": 3786,
      "ĠEnvironment": 3787,
      "Ġbeg": 3788,
      "ĠJournal": 3789,
      "Ġolder": 3790,
      "gy": 3791,
      "rest": 3792,
      "Ġapplications": 3793,
      "Ġformed": 3794,
      "Ġsett": 3795,
      "II": 3796,
      "ĠMex": 3797,
      "Ġleave": 3798,
      "Ġbacteria": 3799,
      "Ġexpand": 3800,
      "--------------------------------": 3801,
      "sec": 3802,
      "Ġearlier": 3803,
      "Ġnucle": 3804,
      "ĠCong": 3805,
      "Ġoffers": 3806,
      "cohol": 3807,
      "Ġplans": 3808,
      "urban": 3809,
      "Ġpiece": 3810,
      "wide": 3811,
      "Ġur": 3812,
      "ĠPlan": 3813,
      "Ġtests": 3814,
      "Ġrecommend": 3815,
      "wood": 3816,
      "ophy": 3817,
      "Ġiniti": 3818,
      "ĠMark": 3819,
      "ĠRet": 3820,
      "ĠClass": 3821,
      "Ġscreen": 3822,
      "Ġwrote": 3823,
      "ĠAng": 3824,
      "Ġpatterns": 3825,
      "Ġexperien": 3826,
      "Ġstar": 3827,
      "Ġphil": 3828,
      "ellig": 3829,
      "cont": 3830,
      "ĠTheir": 3831,
      "Ġnarr": 3832,
      "Ġreasons": 3833,
      "Ġautom": 3834,
      "ĠAcadem": 3835,
      "che": 3836,
      "Ġweather": 3837,
      "Ġalbum": 3838,
      "29": 3839,
      "ĠDem": 3840,
      "ij": 3841,
      "Ġgain": 3842,
      "ĠConf": 3843,
      "Ġmiss": 3844,
      "Ġrecently": 3845,
      "Ġoffice": 3846,
      "Ġprotein": 3847,
      "Ġseems": 3848,
      "Ġinstruct": 3849,
      "Ġhimself": 3850,
      "Ġwinter": 3851,
      "rehens": 3852,
      "Ġapproximately": 3853,
      "Ġmeasures": 3854,
      "Ġcool": 3855,
      "irection": 3856,
      "rab": 3857,
      "abilities": 3858,
      "mitted": 3859,
      "ĠBel": 3860,
      "ĠSociety": 3861,
      "Ġdisplay": 3862,
      "Ġfruit": 3863,
      "Ġbox": 3864,
      "Ġfair": 3865,
      "Ġboard": 3866,
      "Ġjournal": 3867,
      "Ġplanning": 3868,
      "Ġhttps": 3869,
      "ĠDirect": 3870,
      "Ġcapacity": 3871,
      "ST": 3872,
      "Ġshap": 3873,
      "âĢĿ.": 3874,
      "Ġoccurs": 3875,
      "ĠPort": 3876,
      "Ġdevice": 3877,
      "ĠHistor": 3878,
      "Ġgir": 3879,
      "Ġrepe": 3880,
      "Ġanything": 3881,
      "Ġcourt": 3882,
      "Ġdeal": 3883,
      "Ġinteresting": 3884,
      "name": 3885,
      "atin": 3886,
      "Ġrelease": 3887,
      "Ġteeth": 3888,
      "ding": 3889,
      "ĠSen": 3890,
      "rees": 3891,
      "Ġpup": 3892,
      "ĠArch": 3893,
      "Ġaffected": 3894,
      "ĠWhich": 3895,
      "aign": 3896,
      "house": 3897,
      "Ġdiscovered": 3898,
      "Ġcook": 3899,
      "Ġspirit": 3900,
      "ĠAnother": 3901,
      "Ġmoving": 3902,
      "entially": 3903,
      "Ġfemale": 3904,
      "Ġbaby": 3905,
      "27": 3906,
      "anish": 3907,
      "ocr": 3908,
      "ĠGroup": 3909,
      "Ġcommerc": 3910,
      "Ġbenefit": 3911,
      "---|---|": 3912,
      "ĠBra": 3913,
      "ĠConst": 3914,
      "ĠDec": 3915,
      "Ġsteps": 3916,
      "Ġgoes": 3917,
      "Ġhighlight": 3918,
      "Ġtesting": 3919,
      "Ġscale": 3920,
      "anch": 3921,
      "Ġcontrast": 3922,
      "ĠâĢ¦": 3923,
      "Ġcommand": 3924,
      "ĠLa": 3925,
      "Ġrates": 3926,
      "ĠExpl": 3927,
      "Ġtrying": 3928,
      "mosp": 3929,
      "ares": 3930,
      "Ġcode": 3931,
      "Ġinnov": 3932,
      "Ġremember": 3933,
      "Ġappears": 3934,
      "Ġroom": 3935,
      "Ġapplied": 3936,
      "Ġcompar": 3937,
      "ĠRev": 3938,
      "Ġsect": 3939,
      "Ġconsequ": 3940,
      "Ġhol": 3941,
      "ĠST": 3942,
      "Ġrule": 3943,
      "Ġ2005": 3944,
      "Ġtransfer": 3945,
      "ographic": 3946,
      "Ġswe": 3947,
      "Ġmoved": 3948,
      "Ġpicture": 3949,
      "ĠOb": 3950,
      "ĠOff": 3951,
      "Ġ2018": 3952,
      "ING": 3953,
      "45": 3954,
      "uff": 3955,
      "med": 3956,
      "198": 3957,
      "Ġexplore": 3958,
      "ero": 3959,
      "ĠWestern": 3960,
      "Ġtopics": 3961,
      "ĠNet": 3962,
      "Ġmax": 3963,
      "ĠEvery": 3964,
      "AP": 3965,
      "Ġparty": 3966,
      "iest": 3967,
      "ĠFrance": 3968,
      "AM": 3969,
      "erences": 3970,
      "Ġoperations": 3971,
      "Ġnames": 3972,
      "ĠPaul": 3973,
      "Ġmodels": 3974,
      "ructure": 3975,
      "Ġtou": 3976,
      "aled": 3977,
      "Ġdifferences": 3978,
      "Ġsmaller": 3979,
      "Ġallowed": 3980,
      "ĠOnce": 3981,
      "Ġperfect": 3982,
      "Ġconstant": 3983,
      "ocks": 3984,
      "Ġactions": 3985,
      "ĠSocial": 3986,
      "zz": 3987,
      "Ġteach": 3988,
      "Ġoccup": 3989,
      "Ġstrength": 3990,
      "lim": 3991,
      "ĠÃ": 3992,
      "Ġtour": 3993,
      "aid": 3994,
      "inated": 3995,
      "ĠIsrael": 3996,
      "known": 3997,
      "encies": 3998,
      "Ġnutrit": 3999,
      "ĠYes": 4000,
      "Ġintroduced": 4001,
      "Ġevalu": 4002,
      "abetes": 4003,
      "ĠJapanese": 4004,
      "Ġcompletely": 4005,
      "Ġfriend": 4006,
      "Ġcorn": 4007,
      "Ġrecorded": 4008,
      "iding": 4009,
      "Ġreference": 4010,
      "ager": 4011,
      "ĠProt": 4012,
      "Ġcommonly": 4013,
      "Ġfear": 4014,
      "Ġevolution": 4015,
      "Ġrelationships": 4016,
      "lam": 4017,
      "nes": 4018,
      "ĠAir": 4019,
      "Ġrob": 4020,
      "Ġgarden": 4021,
      "Ġgrade": 4022,
      "ĠService": 4023,
      "osy": 4024,
      "ĠĠĠĠĠĠĠĠ": 4025,
      "Ġsugar": 4026,
      "Ġvillage": 4027,
      "28": 4028,
      "Ġcateg": 4029,
      "Ġindustrial": 4030,
      "semb": 4031,
      "iful": 4032,
      "ĠRich": 4033,
      "Ġpowerful": 4034,
      "Ġcoming": 4035,
      "amples": 4036,
      "ĠMal": 4037,
      "Ġinstru": 4038,
      "ĠDavid": 4039,
      "Ġnative": 4040,
      "ris": 4041,
      "Ġfigure": 4042,
      "ĠProfess": 4043,
      "aters": 4044,
      "Ġplease": 4045,
      "Ġnothing": 4046,
      "Ġmachine": 4047,
      "Ġpresented": 4048,
      "Ġfert": 4049,
      "ĠSch": 4050,
      "Ġanti": 4051,
      "ĠThomas": 4052,
      "Ġlaws": 4053,
      "Ġconcepts": 4054,
      "rec": 4055,
      "Ġdidn": 4056,
      "Ġriver": 4057,
      "orial": 4058,
      "Ġdyn": 4059,
      "Ġcompleted": 4060,
      "Ġpapers": 4061,
      "Ġisn": 4062,
      "iring": 4063,
      "Ġstatus": 4064,
      "Ġseven": 4065,
      "Ġusers": 4066,
      "Ġexperiences": 4067,
      "Ġsigns": 4068,
      "Ġrise": 4069,
      "can": 4070,
      "ĠHel": 4071,
      "Ġchanged": 4072,
      "rome": 4073,
      "isation": 4074,
      "edom": 4075,
      "Ġadapt": 4076,
      "ii": 4077,
      "Ġtask": 4078,
      "Ġ189": 4079,
      "oyal": 4080,
      "Ġden": 4081,
      "Ġfully": 4082,
      "Ġmolec": 4083,
      "care": 4084,
      "lor": 4085,
      "win": 4086,
      "Ġmission": 4087,
      "Ġsequ": 4088,
      "Ġgoals": 4089,
      "Ġreduced": 4090,
      "Ġded": 4091,
      "gra": 4092,
      "ĠGreen": 4093,
      "aughter": 4094,
      ");": 4095,
      "Ġcore": 4096,
      "ĠBook": 4097,
      "ĠSecond": 4098,
      "change": 4099,
      "Ġcontroll": 4100,
      "Ġletter": 4101,
      "Ġintroduction": 4102,
      "Ġleaders": 4103,
      "force": 4104,
      "ĠFore": 4105,
      "acters": 4106,
      "ĠGermany": 4107,
      "Ġreports": 4108,
      "Ġgender": 4109,
      "Ġenter": 4110,
      "tery": 4111,
      "Ġ29": 4112,
      "iable": 4113,
      "met": 4114,
      "Ġgave": 4115,
      "ya": 4116,
      "ibly": 4117,
      "bl": 4118,
      "enty": 4119,
      "ĠSun": 4120,
      "Ġhyp": 4121,
      "ĠRober": 4122,
      "sis": 4123,
      "Ġforward": 4124,
      "Ġexposure": 4125,
      "ĠDisc": 4126,
      "eces": 4127,
      "Ġstatement": 4128,
      "Ġproperties": 4129,
      "Ġsample": 4130,
      "Ġnoted": 4131,
      "Ġmajority": 4132,
      "Ġitems": 4133,
      "Ġperformed": 4134,
      "Ġfresh": 4135,
      "ĠLeg": 4136,
      "Ġstructures": 4137,
      "Ġwond": 4138,
      "ament": 4139,
      "atform": 4140,
      "clusion": 4141,
      "Ġfunctions": 4142,
      "Ġsem": 4143,
      "ĠRem": 4144,
      "Ġalone": 4145,
      "Ġtransl": 4146,
      "Ġpeace": 4147,
      "Ġrat": 4148,
      "Ġnote": 4149,
      "ĠGovernment": 4150,
      "Ġfaith": 4151,
      "ĠSk": 4152,
      "Ġgames": 4153,
      "ĠUnion": 4154,
      "tained": 4155,
      "Ġdestro": 4156,
      "itz": 4157,
      "ĠSing": 4158,
      "Ġapply": 4159,
      "board": 4160,
      "*,": 4161,
      "Ġformat": 4162,
      "ĠTwo": 4163,
      "Ġmis": 4164,
      "Ġgiving": 4165,
      "bert": 4166,
      "ĠRepublic": 4167,
      "key": 4168,
      "Ġattract": 4169,
      "ĠLearning": 4170,
      "ston": 4171,
      "ocol": 4172,
      "Ġdefined": 4173,
      "Ġmap": 4174,
      "Ġcontract": 4175,
      "Ġdiscussion": 4176,
      "ND": 4177,
      "Ġbound": 4178,
      "fl": 4179,
      "nel": 4180,
      "Ġdirection": 4181,
      "Ġdiss": 4182,
      "Ġ2004": 4183,
      "mark": 4184,
      "ĠMart": 4185,
      "eding": 4186,
      "Ġchoice": 4187,
      "Ġspring": 4188,
      "pective": 4189,
      "Ġbackground": 4190,
      "ĠKey": 4191,
      "Ġphilos": 4192,
      "iny": 4193,
      "ĠSer": 4194,
      "ĠFam": 4195,
      "ensity": 4196,
      "Ġnutri": 4197,
      "Ġcry": 4198,
      "igr": 4199,
      "Ġgenetic": 4200,
      "ĠProv": 4201,
      "Ġstrugg": 4202,
      "Ġnotes": 4203,
      "Ġemissions": 4204,
      "Ġcomponents": 4205,
      "Ġplanet": 4206,
      "Ġconvers": 4207,
      "ĠPhys": 4208,
      "ï¬": 4209,
      "obile": 4210,
      "des": 4211,
      "leg": 4212,
      "Ġeventually": 4213,
      "Ġround": 4214,
      "Ġdrop": 4215,
      "ams": 4216,
      "Ġresource": 4217,
      "Ġelement": 4218,
      "ael": 4219,
      "aker": 4220,
      "35": 4221,
      "more": 4222,
      "Ġwatch": 4223,
      "ĠPal": 4224,
      "pped": 4225,
      "Ġdisorder": 4226,
      "ĠStreet": 4227,
      "Ġpresident": 4228,
      "oma": 4229,
      "Ġalcohol": 4230,
      "Ġorganizations": 4231,
      "ĠMr": 4232,
      "Ġgraph": 4233,
      "Ġconflict": 4234,
      "RO": 4235,
      "Ġbillion": 4236,
      "ĠOrgan": 4237,
      "Ġpark": 4238,
      "Ġcommercial": 4239,
      "Ġatmosp": 4240,
      "Ġ2019": 4241,
      "yes": 4242,
      "Ġlandsc": 4243,
      "resp": 4244,
      "standing": 4245,
      "RE": 4246,
      "Ġtechnical": 4247,
      "ĠCentral": 4248,
      "Ġincorpor": 4249,
      "born": 4250,
      "Ġpresence": 4251,
      "clus": 4252,
      "Ġseparate": 4253,
      "rupt": 4254,
      "Ġemp": 4255,
      "Ġsurvey": 4256,
      "Ġaspects": 4257,
      "ÃŃ": 4258,
      "ĠDistrict": 4259,
      "Ġblue": 4260,
      "ĠIntroduction": 4261,
      "isher": 4262,
      "Ġlesson": 4263,
      "part": 4264,
      "tical": 4265,
      "Ġlearned": 4266,
      "ilit": 4267,
      "Ġdistinct": 4268,
      "Ġsac": 4269,
      "Ġminor": 4270,
      "Ġillness": 4271,
      "Ġball": 4272,
      "icated": 4273,
      "ida": 4274,
      "Ġpick": 4275,
      "Ġbecoming": 4276,
      "ĠToday": 4277,
      "ogen": 4278,
      "Ġbelief": 4279,
      "Ġschol": 4280,
      "ologist": 4281,
      "Ġ186": 4282,
      "Ġexisting": 4283,
      "Ġassessment": 4284,
      "Ġmeeting": 4285,
      "ĠHen": 4286,
      "Ġhelped": 4287,
      "Ġlimit": 4288,
      "Ġinsect": 4289,
      "ĠStand": 4290,
      "ĠAustralian": 4291,
      "antic": 4292,
      "Ġhair": 4293,
      "Ġcarried": 4294,
      "Ġdram": 4295,
      "Ġincome": 4296,
      "rete": 4297,
      "Ġcities": 4298,
      "Ġhighest": 4299,
      "Ġfamous": 4300,
      "Ġdistrict": 4301,
      "ĠCompany": 4302,
      "Ġwww": 4303,
      "Ġ80": 4304,
      "Ġvision": 4305,
      "ĠMass": 4306,
      "Ġhousehold": 4307,
      "Ġwid": 4308,
      "Ġload": 4309,
      "Ġsetting": 4310,
      "Ġserve": 4311,
      "Ġvirt": 4312,
      "Ġthousands": 4313,
      "Ġforeign": 4314,
      "Ġrecords": 4315,
      "ygen": 4316,
      "asks": 4317,
      "ago": 4318,
      "Ġsuppl": 4319,
      "CO": 4320,
      "igen": 4321,
      "Ġsolutions": 4322,
      "Ġequal": 4323,
      "Ġyouth": 4324,
      "well": 4325,
      "75": 4326,
      "Ġrunning": 4327,
      "Ġurban": 4328,
      "Ġglass": 4329,
      "Ġannual": 4330,
      "Ġmouth": 4331,
      "Ġtox": 4332,
      "ĠPen": 4333,
      "Ġcharacters": 4334,
      "Ġpun": 4335,
      "Ġimmune": 4336,
      "Ġdecades": 4337,
      "asion": 4338,
      "Ġopin": 4339,
      "78": 4340,
      "orage": 4341,
      "Ġcam": 4342,
      "open": 4343,
      "ĠSte": 4344,
      "ĠFranc": 4345,
      "Ġencourage": 4346,
      "Ġspeech": 4347,
      "Ġbalance": 4348,
      "Ġfavor": 4349,
      "Ġmoment": 4350,
      "ĠTur": 4351,
      "Ġprice": 4352,
      "Ġshowed": 4353,
      "mp": 4354,
      "ĠFe": 4355,
      "Ġpassed": 4356,
      "Ġhom": 4357,
      "aste": 4358,
      "ĠSupp": 4359,
      "Ġemotional": 4360,
      "iate": 4361,
      "ĠHall": 4362,
      "ancing": 4363,
      "Ġalternative": 4364,
      "Ġcovered": 4365,
      "raw": 4366,
      "ĠElect": 4367,
      "Ġauth": 4368,
      "Ġchance": 4369,
      "ĠTer": 4370,
      "Ġincreases": 4371,
      "ĠEss": 4372,
      "fficiency": 4373,
      "adian": 4374,
      "Ġbrother": 4375,
      "Ġindependent": 4376,
      "Ġing": 4377,
      "ĠInf": 4378,
      "ĠProject": 4379,
      "Ġroot": 4380,
      "cious": 4381,
      "Ġtransform": 4382,
      "Ġfindings": 4383,
      "Ġtrust": 4384,
      "ĠCourt": 4385,
      "PA": 4386,
      "Ġcomprehens": 4387,
      "ampions": 4388,
      "related": 4389,
      "Ġpow": 4390,
      "elines": 4391,
      "Ġcitizens": 4392,
      "Ġradio": 4393,
      "Ġefficient": 4394,
      "ĠForm": 4395,
      "ĠPost": 4396,
      "hips": 4397,
      "Ġgeneration": 4398,
      "ĠJewish": 4399,
      "ĠCam": 4400,
      "Ġdistribution": 4401,
      "Ġrequirements": 4402,
      "Ġelectricity": 4403,
      "ĠStep": 4404,
      "Ġinitial": 4405,
      "Ġchart": 4406,
      "Ġawareness": 4407,
      "Ġrelatively": 4408,
      "ses": 4409,
      "Ġhuge": 4410,
      "Ġuser": 4411,
      "ees": 4412,
      "ĠDef": 4413,
      "Ġstarting": 4414,
      "Ġtherapy": 4415,
      "Ġcand": 4416,
      "ĠLord": 4417,
      "place": 4418,
      "Ġdrugs": 4419,
      "36": 4420,
      "ieces": 4421,
      "gery": 4422,
      "Ġimmediately": 4423,
      "Ġbuy": 4424,
      "Ġclasses": 4425,
      "ĠAbout": 4426,
      "ĠJe": 4427,
      "Ġcampaign": 4428,
      "ĠUsing": 4429,
      "works": 4430,
      "Ġconnected": 4431,
      "Ġwrong": 4432,
      "Ġlegis": 4433,
      "field": 4434,
      "Ġexcept": 4435,
      "hesis": 4436,
      "Ġconducted": 4437,
      "odes": 4438,
      "Ġprepar": 4439,
      "Ġupd": 4440,
      "Ġ2003": 4441,
      "Ġconsumption": 4442,
      "oser": 4443,
      "Ġspect": 4444,
      "Ġworth": 4445,
      "Ġsurpr": 4446,
      "Ġprinciples": 4447,
      "ĠOp": 4448,
      "Ġexperim": 4449,
      "Ġfrequently": 4450,
      "Ġisland": 4451,
      "ĠSal": 4452,
      "ĠRef": 4453,
      "Ġextremely": 4454,
      "Ġvolunt": 4455,
      "........": 4456,
      "ĠLoc": 4457,
      "Ġnumerous": 4458,
      "39": 4459,
      "ET": 4460,
      "Ġbuildings": 4461,
      "Ġdat": 4462,
      "ava": 4463,
      "Ġdecisions": 4464,
      "Ġdivid": 4465,
      "olved": 4466,
      "ria": 4467,
      "Ġplastic": 4468,
      "Ġfactor": 4469,
      "Ġsen": 4470,
      "ĠMake": 4471,
      "ĠInternet": 4472,
      "anguages": 4473,
      "Ġhappen": 4474,
      "Ġexpert": 4475,
      "Ġtim": 4476,
      "Ġfile": 4477,
      "Ġmilk": 4478,
      "inent": 4479,
      "Ġcurriculum": 4480,
      "ĠHuman": 4481,
      "Ġbank": 4482,
      "Ġgrant": 4483,
      "ĠDesign": 4484,
      "ken": 4485,
      "Ġpages": 4486,
      "Ġmath": 4487,
      "ett": 4488,
      "Ġaccur": 4489,
      "Ġcharacteristics": 4490,
      "Ġdistance": 4491,
      "CS": 4492,
      "ped": 4493,
      "ifically": 4494,
      "ĠBas": 4495,
      "Ġperhaps": 4496,
      "Ġkid": 4497,
      "ĠWeb": 4498,
      "Ġpolicies": 4499,
      "Ġrural": 4500,
      "osc": 4501,
      "bal": 4502,
      "vis": 4503,
      "ania": 4504,
      "Ġ1990": 4505,
      "ĠCap": 4506,
      "Ġunc": 4507,
      "Ġregions": 4508,
      "Ġassum": 4509,
      "ena": 4510,
      "ologists": 4511,
      "Ġchallenge": 4512,
      "Ġstore": 4513,
      "Ġrot": 4514,
      "Ġdiabetes": 4515,
      "Ġiron": 4516,
      "Ġbrief": 4517,
      "Ġlived": 4518,
      "merican": 4519,
      "Ġpromote": 4520,
      "Ġsquare": 4521,
      "ias": 4522,
      "Ġrace": 4523,
      "Ġchanging": 4524,
      "ĠTest": 4525,
      "ightly": 4526,
      "Ġinstit": 4527,
      "eal": 4528,
      "Ġbelieved": 4529,
      "ĠQue": 4530,
      "ĠCommission": 4531,
      "Ġscen": 4532,
      "Ġtechnologies": 4533,
      "Ġmetal": 4534,
      "Ġstream": 4535,
      "Ġdepression": 4536,
      "Ġfields": 4537,
      "roph": 4538,
      "imens": 4539,
      "ĠMet": 4540,
      "ĠEv": 4541,
      "Ġexperiment": 4542,
      "ounced": 4543,
      "ĠSl": 4544,
      "ĠLou": 4545,
      "uit": 4546,
      "utive": 4547,
      "ĠGeorge": 4548,
      "ĠCongress": 4549,
      "CT": 4550,
      "icial": 4551,
      "Ġhomes": 4552,
      "Ġdirector": 4553,
      "Ġrelevant": 4554,
      "onic": 4555,
      "emporary": 4556,
      "ĠInformation": 4557,
      "Ġreb": 4558,
      "ĠCle": 4559,
      "gypt": 4560,
      "ville": 4561,
      "Ġkm": 4562,
      "Ġbodies": 4563,
      "ĠUp": 4564,
      "Ġheavy": 4565,
      "SA": 4566,
      "ĠMem": 4567,
      "ĠIsland": 4568,
      "Ġsuggests": 4569,
      "Ġpip": 4570,
      "Ġlinked": 4571,
      "arrow": 4572,
      "raction": 4573,
      "DA": 4574,
      "icy": 4575,
      "Ġexcell": 4576,
      "itage": 4577,
      "urt": 4578,
      "urance": 4579,
      "Ġdescribe": 4580,
      "Ġinvolve": 4581,
      "ĠTex": 4582,
      "Ġexplan": 4583,
      "Ġesc": 4584,
      "levision": 4585,
      "Ġbottom": 4586,
      "Ġinstance": 4587,
      "rum": 4588,
      "Ġmale": 4589,
      "ĠFre": 4590,
      "Ġclub": 4591,
      "iveness": 4592,
      "Ġpollution": 4593,
      "Ġtissue": 4594,
      "Ġsave": 4595,
      "ĠFoundation": 4596,
      "Ġwest": 4597,
      "Ġclearly": 4598,
      "Ġlisted": 4599,
      "Ġbelong": 4600,
      "Ġtaught": 4601,
      "Ġsolid": 4602,
      "Ġinjury": 4603,
      "Ġleadership": 4604,
      "Ġmarried": 4605,
      "Ġabsor": 4606,
      "Ġkilled": 4607,
      "ĠReview": 4608,
      "Ġmuscle": 4609,
      "ĠUN": 4610,
      "Ġparticipants": 4611,
      "ki": 4612,
      "Ġfine": 4613,
      "ĠFree": 4614,
      "Ġpregn": 4615,
      "ognitive": 4616,
      "ĠDNA": 4617,
      "Ġidentity": 4618,
      "Ġcausing": 4619,
      "band": 4620,
      "Ġspot": 4621,
      "Ġpractical": 4622,
      "'ll": 4623,
      "och": 4624,
      "ĠWomen": 4625,
      "Ġplatform": 4626,
      "Ġcoord": 4627,
      "ĠEngine": 4628,
      "Ġmaster": 4629,
      "Ġexcess": 4630,
      "Ġrail": 4631,
      "Ġhappens": 4632,
      "Ġfarmers": 4633,
      "ĠSam": 4634,
      "ching": 4635,
      "ĠPract": 4636,
      "anging": 4637,
      "Ġdesp": 4638,
      "Ġwidely": 4639,
      "Ġobserved": 4640,
      "Ġdefinition": 4641,
      "Ã¼": 4642,
      "Ġweak": 4643,
      "ĠWhite": 4644,
      "Ġphysic": 4645,
      "ĠTHE": 4646,
      "Ġwall": 4647,
      "oul": 4648,
      "Ġfacts": 4649,
      "iox": 4650,
      "Ġdrive": 4651,
      "Ġfailure": 4652,
      "Ġmedicine": 4653,
      "Ġsouthern": 4654,
      "Ġwife": 4655,
      "Ġconcerns": 4656,
      "ios": 4657,
      "liam": 4658,
      "Ġanyone": 4659,
      "Ġfix": 4660,
      "Ġmuseum": 4661,
      "imb": 4662,
      "ĠCath": 4663,
      "ander": 4664,
      "Ġfinding": 4665,
      "Ġsupported": 4666,
      "Ġoptions": 4667,
      "Ġfol": 4668,
      "ulf": 4669,
      "eline": 4670,
      "rates": 4671,
      "astern": 4672,
      "ĠFind": 4673,
      "ircraft": 4674,
      "ĠJer": 4675,
      "Ġunits": 4676,
      "Ġtreated": 4677,
      "Ġtrou": 4678,
      "unicip": 4679,
      "Ġunivers": 4680,
      "Ġgrass": 4681,
      "Ġregarding": 4682,
      "ĠMusic": 4683,
      "erved": 4684,
      "Ġliqu": 4685,
      "Ġcycle": 4686,
      "iday": 4687,
      "Ġhelping": 4688,
      "Ġthesis": 4689,
      "ieties": 4690,
      "Ġeasier": 4691,
      "ĠTechnology": 4692,
      "Ġbird": 4693,
      "Ġconservation": 4694,
      "ĠMedic": 4695,
      "Ġtechnique": 4696,
      "ĠLike": 4697,
      "ĠOld": 4698,
      "Ġinfluen": 4699,
      "za": 4700,
      "Ġsignificantly": 4701,
      "ĠMac": 4702,
      "ĠBack": 4703,
      "Ġgets": 4704,
      "comes": 4705,
      "uted": 4706,
      "ĠMexico": 4707,
      "ĠThrough": 4708,
      "Ġdiscover": 4709,
      "liament": 4710,
      "Ġnorthern": 4711,
      "Ġsentence": 4712,
      "Ġdie": 4713,
      "Ġgod": 4714,
      "ĠBer": 4715,
      "Ġreaction": 4716,
      "essel": 4717,
      "Ġ2001": 4718,
      "Ġcreation": 4719,
      "ĠBo": 4720,
      "Ġcoal": 4721,
      "Ġresulting": 4722,
      "Ġeffectively": 4723,
      "iant": 4724,
      "Ġvot": 4725,
      "Ġship": 4726,
      "Ġrecy": 4727,
      "ĠStudies": 4728,
      "Ġreplace": 4729,
      "bo": 4730,
      "Ġbed": 4731,
      "ultiple": 4732,
      "ishing": 4733,
      "ĠCommon": 4734,
      "Ġmessage": 4735,
      "Ġsand": 4736,
      "ĠBre": 4737,
      "34": 4738,
      "erate": 4739,
      "ĠDel": 4740,
      "ĠDiv": 4741,
      "Ġprofession": 4742,
      "Ġmotor": 4743,
      "ping": 4744,
      "Ġleader": 4745,
      "ĠRobert": 4746,
      "An": 4747,
      "right": 4748,
      "Ġintellig": 4749,
      "Ġfounded": 4750,
      "Ġready": 4751,
      "Ġaward": 4752,
      "Ġsav": 4753,
      "Ġhour": 4754,
      "Ġstim": 4755,
      "ĠPac": 4756,
      "Ġarticles": 4757,
      "ENT": 4758,
      "umn": 4759,
      "Ġdri": 4760,
      "Ġrecognized": 4761,
      "Ġdestroy": 4762,
      "Ġconclud": 4763,
      "Ġhear": 4764,
      "Ġoxygen": 4765,
      "ĠThus": 4766,
      "####": 4767,
      "ĠSee": 4768,
      "Ġprofessor": 4769,
      "Ġsexual": 4770,
      "Ġpieces": 4771,
      "ĠBen": 4772,
      "cers": 4773,
      "Ġlov": 4774,
      "Ġconnection": 4775,
      "ĠGreek": 4776,
      "Ġorganic": 4777,
      "Ġresponsibility": 4778,
      "Ġpreviously": 4779,
      "Ġple": 4780,
      "ĠIN": 4781,
      "unction": 4782,
      "Ġconsult": 4783,
      "'ve": 4784,
      "Ġinfl": 4785,
      "Ġcontinues": 4786,
      "ĠAtt": 4787,
      "sey": 4788,
      "Ġdisorders": 4789,
      "col": 4790,
      "Ġshared": 4791,
      "Ġintended": 4792,
      "Ġagg": 4793,
      "ĠArmy": 4794,
      "Ġrisks": 4795,
      "Ġantib": 4796,
      "ointed": 4797,
      "Ġ188": 4798,
      "Ġexperts": 4799,
      "ĠTherefore": 4800,
      "ĠAddition": 4801,
      "Ġinterested": 4802,
      "ĠPlease": 4803,
      "Ġdogs": 4804,
      "co": 4805,
      "Ġalg": 4806,
      "ĠWhere": 4807,
      "Ġplaying": 4808,
      "rm": 4809,
      "onds": 4810,
      "Ġutil": 4811,
      "Ġmentioned": 4812,
      "riage": 4813,
      "ipl": 4814,
      "Ġsettle": 4815,
      "Ġremoved": 4816,
      "ĠLake": 4817,
      "west": 4818,
      "Ġlanguages": 4819,
      "Ġeggs": 4820,
      "Ġvary": 4821,
      "rust": 4822,
      "Ġ70": 4823,
      "Ġocean": 4824,
      "ndrome": 4825,
      "rog": 4826,
      "Ġseed": 4827,
      "Ġ35": 4828,
      "Ġactual": 4829,
      "Ġraised": 4830,
      "ĠNews": 4831,
      "Ġinterpret": 4832,
      "ĠFollow": 4833,
      "Ġsubsequ": 4834,
      "Ġwanted": 4835,
      "Ġletters": 4836,
      "Ġprimarily": 4837,
      "ĠBoth": 4838,
      "Ġflowers": 4839,
      "ĠAcademy": 4840,
      "hi": 4841,
      "Ġchapter": 4842,
      "Ġtrend": 4843,
      "Ġreferred": 4844,
      "ogical": 4845,
      "agraph": 4846,
      "ressive": 4847,
      "ĠMain": 4848,
      "Ġlessons": 4849,
      "ĠTeac": 4850,
      "Ġmal": 4851,
      "lick": 4852,
      "Ġopened": 4853,
      "Ġbeautiful": 4854,
      "example": 4855,
      "Ġvolume": 4856,
      "Ġtemperatures": 4857,
      "Ġresistance": 4858,
      "Ġfollows": 4859,
      "Ġmo": 4860,
      "ĠDet": 4861,
      "iling": 4862,
      "Ġprem": 4863,
      "oughly": 4864,
      "Ġrequest": 4865,
      "Ġrecommended": 4866,
      "ĠSaf": 4867,
      "Ġengineering": 4868,
      "zing": 4869,
      "Ġpric": 4870,
      "Ġstorage": 4871,
      "Ġconv": 4872,
      "ĠDi": 4873,
      "abul": 4874,
      "Ġresidents": 4875,
      "Ġclick": 4876,
      "Ġunf": 4877,
      "Ġinstruction": 4878,
      "Ġ90": 4879,
      "osystem": 4880,
      "PS": 4881,
      "UR": 4882,
      "Ġprocessing": 4883,
      "What": 4884,
      "Ġarm": 4885,
      "ensus": 4886,
      "Ġextensive": 4887,
      "BC": 4888,
      "Ġanx": 4889,
      "Ġflood": 4890,
      "ded": 4891,
      "ĠCommit": 4892,
      "asive": 4893,
      "rows": 4894,
      "Ġoffered": 4895,
      "Ġreducing": 4896,
      "Ġvictim": 4897,
      "rich": 4898,
      "enth": 4899,
      "Ġnav": 4900,
      "ĠTexas": 4901,
      "ĠTop": 4902,
      "ĠBoard": 4903,
      "AD": 4904,
      "Ġreality": 4905,
      "ĠEgypt": 4906,
      "Ġcounter": 4907,
      "Ġrul": 4908,
      "ĠVict": 4909,
      "Ġanswers": 4910,
      "bra": 4911,
      "Ġpul": 4912,
      "Ġ2002": 4913,
      "Ġstrategy": 4914,
      "Ġexperienced": 4915,
      "do": 4916,
      "onomic": 4917,
      "Ġmut": 4918,
      "Ġmanner": 4919,
      "ĠKnow": 4920,
      "Ġadvanced": 4921,
      "Ġbegins": 4922,
      "ĠBay": 4923,
      "Ġfocused": 4924,
      "ĠNor": 4925,
      "Ġcorpor": 4926,
      "Ġpupils": 4927,
      "ĠGood": 4928,
      "Ġbattle": 4929,
      "Ġtruth": 4930,
      "Ġviolence": 4931,
      "Ġreached": 4932,
      "Ġchronic": 4933,
      "Ġjobs": 4934,
      "ĠPower": 4935,
      "yt": 4936,
      "Ġmanage": 4937,
      "ĠIslam": 4938,
      "Ġeast": 4939,
      "Ġkept": 4940,
      "Ġinvolves": 4941,
      "Ġcert": 4942,
      "Ġcomplic": 4943,
      "cling": 4944,
      "Ġalt": 4945,
      "Ġdecided": 4946,
      "Ġturned": 4947,
      "Ã³": 4948,
      "Ġinternal": 4949,
      "ĠChapter": 4950,
      "Ġallowing": 4951,
      "Ġnarrative": 4952,
      "alian": 4953,
      "ributed": 4954,
      "Ġhorm": 4955,
      "Ġprefer": 4956,
      "ĠCD": 4957,
      "illing": 4958,
      "Ġlabel": 4959,
      "osen": 4960,
      "Ġwriter": 4961,
      "hetic": 4962,
      "ux": 4963,
      "ĠTime": 4964,
      "Ġremove": 4965,
      "Ġsurrounding": 4966,
      "Ġauthors": 4967,
      "arge": 4968,
      "Ġabuse": 4969,
      "Ġpoet": 4970,
      "ĠCharles": 4971,
      "Ġsustainable": 4972,
      "emic": 4973,
      "Ġtrig": 4974,
      "ka": 4975,
      "Ġmanufacture": 4976,
      "ĠHenry": 4977,
      "Ġwet": 4978,
      "Ġvessel": 4979,
      "ĠSmith": 4980,
      "Ġprepared": 4981,
      "Ġmostly": 4982,
      "asp": 4983,
      "ĠScient": 4984,
      "ĠHome": 4985,
      "------------": 4986,
      "Ġsubjects": 4987,
      "ht": 4988,
      "Ġtrib": 4989,
      "Ġmist": 4990,
      "ĠLab": 4991,
      "Ġspent": 4992,
      "ĠJose": 4993,
      "Ġju": 4994,
      "rastructure": 4995,
      "44": 4996,
      "ulating": 4997,
      "ads": 4998,
      "ĠRoad": 4999,
      "Ġstudied": 5000,
      "Ġinstitutions": 5001,
      "burg": 5002,
      "ishes": 5003,
      "Ġnewsp": 5004,
      "Ġremained": 5005,
      "Ġbehaviour": 5006,
      "CC": 5007,
      "ĠAny": 5008,
      "Ġinput": 5009,
      "Ġroles": 5010,
      "Ġestimated": 5011,
      "la": 5012,
      "Ġhop": 5013,
      "ĠGet": 5014,
      "ĠSea": 5015,
      "Ġ###": 5016,
      "Ġoutput": 5017,
      "Ġdegrees": 5018,
      "Ġcredit": 5019,
      "Ġappeared": 5020,
      "âĢľ": 5021,
      "ĠBur": 5022,
      "ye": 5023,
      "Ġisol": 5024,
      "Ġcomfort": 5025,
      "Ġneu": 5026,
      "Ġsports": 5027,
      "Ġcircum": 5028,
      "Ġmotiv": 5029,
      "Ġwestern": 5030,
      "Ġinh": 5031,
      "Ġyellow": 5032,
      "Ġtips": 5033,
      "RI": 5034,
      "ĠDan": 5035,
      "Ġheard": 5036,
      "ĠExp": 5037,
      "ĠEnergy": 5038,
      "Ġhospital": 5039,
      "Ġlib": 5040,
      "ĠLong": 5041,
      "azine": 5042,
      "38": 5043,
      "Ġconfirm": 5044,
      "Ġast": 5045,
      "Ġwhom": 5046,
      "ĠJud": 5047,
      "ifying": 5048,
      "100": 5049,
      "uable": 5050,
      "ĠCivil": 5051,
      "Ġupper": 5052,
      "Ġign": 5053,
      "Ġimpacts": 5054,
      "last": 5055,
      "Ġterrit": 5056,
      "ĠStudy": 5057,
      "ĠCarol": 5058,
      "âĢĿ,": 5059,
      "Ġtasks": 5060,
      "ado": 5061,
      "berg": 5062,
      "Ġformation": 5063,
      "Ġclinical": 5064,
      "ogue": 5065,
      "Ġ31": 5066,
      "Ġprint": 5067,
      "Ġphr": 5068,
      "Ġpopulations": 5069,
      "down": 5070,
      "Ġphone": 5071,
      "going": 5072,
      "Ġdynam": 5073,
      "US": 5074,
      "alle": 5075,
      "Ġsurgery": 5076,
      "Ġadvance": 5077,
      "Ġfacilities": 5078,
      "Ġlic": 5079,
      "ĠLatin": 5080,
      "ASA": 5081,
      "gment": 5082,
      "roke": 5083,
      "umber": 5084,
      "Ġuniversity": 5085,
      "ĠVis": 5086,
      "Ġvul": 5087,
      "Ġfunding": 5088,
      "Ġreligion": 5089,
      "48": 5090,
      "omin": 5091,
      "uration": 5092,
      "ĠFurther": 5093,
      "90": 5094,
      "Äģ": 5095,
      "eria": 5096,
      "ications": 5097,
      "Ġhit": 5098,
      "Ġseeds": 5099,
      "lig": 5100,
      "ented": 5101,
      "Ġsynt": 5102,
      "olf": 5103,
      "Ġphen": 5104,
      "ourney": 5105,
      "Ġsecondary": 5106,
      "Ġfreedom": 5107,
      "Ġoriginally": 5108,
      "Ġstars": 5109,
      "ĠWild": 5110,
      "Ġsounds": 5111,
      "Ġadvantage": 5112,
      "ĠPacific": 5113,
      "ĠFil": 5114,
      "Ġexposed": 5115,
      "Ġdoub": 5116,
      "Ġregional": 5117,
      "Ġoperation": 5118,
      "ĠGuide": 5119,
      "ĠOF": 5120,
      "Ġgrown": 5121,
      "Ġconver": 5122,
      "Ġcontribute": 5123,
      "Ġperman": 5124,
      "Ġfeeling": 5125,
      "Ġreturned": 5126,
      "Ġproperly": 5127,
      "Ġdangerous": 5128,
      "ĠMichael": 5129,
      "Ġadjust": 5130,
      "eer": 5131,
      "ĠBus": 5132,
      "ĠOffice": 5133,
      "Ġmel": 5134,
      "Ġefficiency": 5135,
      "Ġdream": 5136,
      "ĠLibrary": 5137,
      "Ġauthority": 5138,
      "âĢ¦âĢ¦âĢ¦âĢ¦": 5139,
      "igration": 5140,
      "ĠMag": 5141,
      "Ġheight": 5142,
      "Ġrefers": 5143,
      "iverse": 5144,
      "Ġvaccine": 5145,
      "atically": 5146,
      "Ġbag": 5147,
      "Ġcombination": 5148,
      "Ġpredict": 5149,
      "writ": 5150,
      "Ġmi": 5151,
      "ĠPeter": 5152,
      "Ġaid": 5153,
      "osite": 5154,
      "Ġstorm": 5155,
      "Ġmeat": 5156,
      "Ġexpression": 5157,
      "Ġtransition": 5158,
      "Ġleads": 5159,
      "Ġdepending": 5160,
      "Ġdaughter": 5161,
      "Ġthick": 5162,
      "ĠAward": 5163,
      "ressed": 5164,
      "verty": 5165,
      "anges": 5166,
      "ails": 5167,
      "55": 5168,
      "Ġnuclear": 5169,
      "Ġaircraft": 5170,
      "ĠId": 5171,
      "Ġcombined": 5172,
      "ĠLiter": 5173,
      "Ġpoverty": 5174,
      "Ġjoined": 5175,
      "rep": 5176,
      "Ġrein": 5177,
      "den": 5178,
      "Ġwel": 5179,
      "Ġcomment": 5180,
      "ĠParty": 5181,
      "ĠVirgin": 5182,
      "Ġtum": 5183,
      "ĠBible": 5184,
      "akers": 5185,
      "Ġexplains": 5186,
      "Ġshowing": 5187,
      "Ġelimin": 5188,
      "Ġexactly": 5189,
      "ault": 5190,
      "Ġpaint": 5191,
      "37": 5192,
      "ny": 5193,
      "ĠArab": 5194,
      "unk": 5195,
      "Ġagricultural": 5196,
      "Ġbone": 5197,
      "Ġcere": 5198,
      "Ġdatab": 5199,
      "Ġhearing": 5200,
      "Ġatmosphere": 5201,
      "Ġlung": 5202,
      "Ġlinks": 5203,
      "ĠCult": 5204,
      "oper": 5205,
      "Ġblog": 5206,
      "Ġ1999": 5207,
      "abulary": 5208,
      "ĠAD": 5209,
      "Ġgrand": 5210,
      "31": 5211,
      "Ġpray": 5212,
      "Ġinfections": 5213,
      "Ġpurposes": 5214,
      "ĠAsia": 5215,
      "Ġlayer": 5216,
      "ĠRussian": 5217,
      "ĠHave": 5218,
      "Ġstraight": 5219,
      "iance": 5220,
      "ĠRad": 5221,
      "rian": 5222,
      "Ġfloor": 5223,
      "Ġmorning": 5224,
      "Ġadvoc": 5225,
      "iated": 5226,
      "ĠSpanish": 5227,
      "*.": 5228,
      "ĠBet": 5229,
      "Ġelectrical": 5230,
      "Ġdetermined": 5231,
      "Ġleaf": 5232,
      "Ġjoint": 5233,
      "OL": 5234,
      "Ġmer": 5235,
      "Ġcomposition": 5236,
      "ĠStr": 5237,
      "Ġcollected": 5238,
      "ĠCommittee": 5239,
      "ĠFig": 5240,
      "Ġnotice": 5241,
      "rence": 5242,
      "Ġadvice": 5243,
      "ship": 5244,
      "Ġsituations": 5245,
      "iology": 5246,
      "Ġtraffic": 5247,
      "ĠSign": 5248,
      "Ġvoice": 5249,
      "athy": 5250,
      "Ġcharge": 5251,
      "IL": 5252,
      "lets": 5253,
      "Ġmarked": 5254,
      "ĠProfessor": 5255,
      "Ġcoin": 5256,
      "ĠWin": 5257,
      "Ġdepth": 5258,
      "zy": 5259,
      "Ġimproved": 5260,
      "Ġfamiliar": 5261,
      "ĠEnvironmental": 5262,
      "BN": 5263,
      "ta": 5264,
      "ĠPub": 5265,
      "Ġshel": 5266,
      "ortunately": 5267,
      "Ġproposed": 5268,
      "Ġdownload": 5269,
      "ĠMedical": 5270,
      "Ġcrops": 5271,
      "nic": 5272,
      "Ġpil": 5273,
      "Ġobvious": 5274,
      "Ġdiam": 5275,
      "Ġradiation": 5276,
      "ĠCommunity": 5277,
      "Ġvegetables": 5278,
      "ĠTake": 5279,
      "Ġtelevision": 5280,
      "ework": 5281,
      "Ġ1970": 5282,
      "Ġargument": 5283,
      "otal": 5284,
      "Ġ45": 5285,
      "Ġdiverse": 5286,
      "ona": 5287,
      "Ġmainly": 5288,
      "Ġhabitat": 5289,
      "Ġwonder": 5290,
      "Ġroll": 5291,
      "Ġgoods": 5292,
      "ĠLead": 5293,
      "CH": 5294,
      "ey": 5295,
      "Ġsecret": 5296,
      "Ġforced": 5297,
      "ĠLouis": 5298,
      "Ġtal": 5299,
      "ĠAlex": 5300,
      "ĠParent": 5301,
      "Ġallerg": 5302,
      "Ġconsists": 5303,
      "Ġcreative": 5304,
      "76": 5305,
      "Ġdut": 5306,
      "Ġonto": 5307,
      "ĠMer": 5308,
      "espite": 5309,
      "Ġchemicals": 5310,
      "bed": 5311,
      "hu": 5312,
      "Ġpal": 5313,
      "ĠOx": 5314,
      "ĠFlor": 5315,
      "Ġemergency": 5316,
      "oto": 5317,
      "ifies": 5318,
      "Ġdetect": 5319,
      "Ġbreast": 5320,
      "Ġburn": 5321,
      "Ġoperating": 5322,
      "Ġvehicle": 5323,
      "ĠAnn": 5324,
      "Ġcorresp": 5325,
      "Ġfigures": 5326,
      "Ġsector": 5327,
      "Ġexcellent": 5328,
      "Ġaf": 5329,
      "Ġstone": 5330,
      "ĠWind": 5331,
      "Ġroots": 5332,
      "Ġcompetition": 5333,
      "Ġsort": 5334,
      "Ã¶": 5335,
      "Ġfelt": 5336,
      "Ġpret": 5337,
      "Ġsupporting": 5338,
      "Ġoccurred": 5339,
      "Ġsaying": 5340,
      "Ġsusp": 5341,
      "Ġfirm": 5342,
      "ĠMel": 5343,
      "Ġdespite": 5344,
      "aud": 5345,
      "Ġrenew": 5346,
      "Ġamounts": 5347,
      "Ġdrinking": 5348,
      "Ġlandscape": 5349,
      "MS": 5350,
      "mas": 5351,
      "ĠGold": 5352,
      "Ġedition": 5353,
      "ĠDirector": 5354,
      "Ġspend": 5355,
      "Ġappearance": 5356,
      "Ġ>": 5357,
      "Ġreform": 5358,
      "Ġfertil": 5359,
      "Ġbud": 5360,
      "ĠRoyal": 5361,
      "Ġsyn": 5362,
      "ĠEmp": 5363,
      "Ġaudience": 5364,
      "Ġinternet": 5365,
      "Ġlooks": 5366,
      "ĠMo": 5367,
      "Ġneut": 5368,
      "ĠCanadian": 5369,
      "ĠCat": 5370,
      "inger": 5371,
      "Ġquar": 5372,
      "Ġcris": 5373,
      "orter": 5374,
      "ĠBul": 5375,
      "Ġconsequences": 5376,
      "ĠWell": 5377,
      "Ġinterview": 5378,
      "gl": 5379,
      "ĠBefore": 5380,
      "Ġagriculture": 5381,
      "32": 5382,
      "ĠDesc": 5383,
      "Ġreaders": 5384,
      "Ġinterests": 5385,
      "ctors": 5386,
      "ĠBat": 5387,
      "ĠTreat": 5388,
      "ĠTimes": 5389,
      "oking": 5390,
      "Ġelev": 5391,
      "inos": 5392,
      "ogle": 5393,
      "Ġartists": 5394,
      "choice": 5395,
      "Ġmeant": 5396,
      "Ġparagraph": 5397,
      "oom": 5398,
      "war": 5399,
      "iced": 5400,
      "resents": 5401,
      "Ġecosystem": 5402,
      "ĠPlay": 5403,
      "Ġdetailed": 5404,
      "ĠExt": 5405,
      "ĠNav": 5406,
      "Ġ1998": 5407,
      "ĠFamily": 5408,
      "EP": 5409,
      "cript": 5410,
      "Ġkn": 5411,
      "asure": 5412,
      "Ġgar": 5413,
      "tenance": 5414,
      "Ġoral": 5415,
      "Ġserves": 5416,
      "Ġfoss": 5417,
      "Ġbill": 5418,
      "Ġgal": 5419,
      "ĠLand": 5420,
      "cher": 5421,
      "Ġthr": 5422,
      "ĠStat": 5423,
      "Ġphase": 5424,
      "ĠManagement": 5425,
      "Ġchann": 5426,
      "Ġwealth": 5427,
      "ĠAns": 5428,
      "ĠMont": 5429,
      "Ġdouble": 5430,
      "Ġinches": 5431,
      "Ġselected": 5432,
      "sembly": 5433,
      "Ġmic": 5434,
      "Ġdiagnosis": 5435,
      "Ġdial": 5436,
      "Ġhus": 5437,
      "Ġinfrastructure": 5438,
      "Ġwire": 5439,
      "othing": 5440,
      "ĠParis": 5441,
      "Ġkeeping": 5442,
      "Ġconcern": 5443,
      "ait": 5444,
      "Ġwaters": 5445,
      "rot": 5446,
      "Ġdigest": 5447,
      "ĠAgricult": 5448,
      "Ġfle": 5449,
      "ĠCop": 5450,
      "ĠIll": 5451,
      "amental": 5452,
      "ĠMath": 5453,
      "ilding": 5454,
      "ĠWho": 5455,
      "Ġlargely": 5456,
      "ĠSpace": 5457,
      "ĠVictor": 5458,
      "oral": 5459,
      "Ġ1980": 5460,
      "Ġrevolution": 5461,
      "Ġflex": 5462,
      "Ġaccomp": 5463,
      "Ġenhance": 5464,
      "Ġmaximum": 5465,
      "Ġdedicated": 5466,
      "ĠCatholic": 5467,
      "Ġclosed": 5468,
      "Ġserving": 5469,
      "Ġtypical": 5470,
      "Ġstock": 5471,
      "ibilities": 5472,
      "Ġideal": 5473,
      "Ġreduction": 5474,
      "ĠAtl": 5475,
      "Ġera": 5476,
      "lers": 5477,
      "Ġhelpful": 5478,
      "Ġcouple": 5479,
      "Ġpra": 5480,
      "bridge": 5481,
      "Ġcritic": 5482,
      "rieved": 5483,
      "Ġpu": 5484,
      "ĠChem": 5485,
      "ĠLearn": 5486,
      "ĠRichard": 5487,
      "stract": 5488,
      "Ġgreatest": 5489,
      "ĠGrand": 5490,
      "heast": 5491,
      "Ġfinally": 5492,
      "ario": 5493,
      "65": 5494,
      "ĠRussia": 5495,
      "Ġmathematics": 5496,
      "Ġspl": 5497,
      "As": 5498,
      "Ġoption": 5499,
      "Ġlies": 5500,
      "eters": 5501,
      "Ġperspective": 5502,
      "ĠArts": 5503,
      "Ġthoughts": 5504,
      "Ġcomprehensive": 5505,
      "ĠSym": 5506,
      "Ġgirls": 5507,
      "Ġdomestic": 5508,
      "Ġlatest": 5509,
      "itar": 5510,
      "ĠWhe": 5511,
      "Ġslightly": 5512,
      "Ġachieved": 5513,
      "Ġindicate": 5514,
      "Ġvulner": 5515,
      "mat": 5516,
      "Ġpros": 5517,
      "ĠLine": 5518,
      "Ġtreatments": 5519,
      "Ġprogramming": 5520,
      "hyth": 5521,
      "Ġnutrients": 5522,
      "ĠBest": 5523,
      "Ġpolice": 5524,
      "ĠExper": 5525,
      "Ġprocedure": 5526,
      "ompl": 5527,
      "Ġvital": 5528,
      "47": 5529,
      "flow": 5530,
      "Ġmotion": 5531,
      "Ġlibrary": 5532,
      "Ġkinds": 5533,
      "ãĤ": 5534,
      "itan": 5535,
      "ĠMad": 5536,
      "ĠNOT": 5537,
      "ĠNASA": 5538,
      "Ġfacilit": 5539,
      "inate": 5540,
      "Ġorganized": 5541,
      "Ġcultiv": 5542,
      "multiple": 5543,
      "Ġsignal": 5544,
      "Ġcm": 5545,
      "Ġexternal": 5546,
      "ĠMiddle": 5547,
      "Ġartist": 5548,
      "Ġsuggested": 5549,
      "OS": 5550,
      "Ġdro": 5551,
      "Ġpeak": 5552,
      "Ġskill": 5553,
      "chers": 5554,
      "itors": 5555,
      "Ġnor": 5556,
      "Ġstudying": 5557,
      "tra": 5558,
      "arp": 5559,
      "ota": 5560,
      "Ġspecifically": 5561,
      "Ġfruits": 5562,
      "Ġinflamm": 5563,
      "Ġoutcomes": 5564,
      "Ġprotected": 5565,
      "alysis": 5566,
      "ĠRob": 5567,
      "Ġrepresents": 5568,
      "49": 5569,
      "tion": 5570,
      "Ġment": 5571,
      "Ġleaving": 5572,
      "Ġcompare": 5573,
      "Ġattend": 5574,
      "ĠTom": 5575,
      "ĠReading": 5576,
      "ĠMedicine": 5577,
      "Ġpresentation": 5578,
      "ĠInstead": 5579,
      "itness": 5580,
      "Ġtooth": 5581,
      "agers": 5582,
      "Ġpig": 5583,
      "Ġbot": 5584,
      "ĠPerson": 5585,
      "46": 5586,
      "icted": 5587,
      "state": 5588,
      "ĠLanguage": 5589,
      "orith": 5590,
      "Ġfif": 5591,
      "Ġban": 5592,
      "Ġages": 5593,
      "rd": 5594,
      "Ġlose": 5595,
      "ĠEnd": 5596,
      "Ġhappened": 5597,
      "yles": 5598,
      "Ġ2021": 5599,
      "Ġaffects": 5600,
      "Ġmonitoring": 5601,
      "Ġneighb": 5602,
      "Ġdivided": 5603,
      "Ġincl": 5604,
      "Ġdirected": 5605,
      "Ġassistance": 5606,
      "Ġcognitive": 5607,
      "Ġapproaches": 5608,
      "Ġfort": 5609,
      "ĠFederal": 5610,
      "Ġjourney": 5611,
      "reland": 5612,
      "Ġfaster": 5613,
      "Ġconvent": 5614,
      "Ġsets": 5615,
      "Ġfeelings": 5616,
      "Ġsuffering": 5617,
      "Ġhistoric": 5618,
      "ĠJoseph": 5619,
      "ooth": 5620,
      "Ġkil": 5621,
      "ĠKore": 5622,
      "Ġdeliver": 5623,
      "Ġliterary": 5624,
      "Ġfrequency": 5625,
      "Ġofficials": 5626,
      "icago": 5627,
      "road": 5628,
      "ĠTV": 5629,
      "stream": 5630,
      "Ġprepare": 5631,
      "aturally": 5632,
      "Ġvent": 5633,
      "Choices": 5634,
      "yright": 5635,
      "Ġtoxic": 5636,
      "Ġbrown": 5637,
      "oster": 5638,
      "Ġtrain": 5639,
      "Ġflight": 5640,
      "ossible": 5641,
      "Ġdistingu": 5642,
      "Ġgovernments": 5643,
      "33": 5644,
      "ĠGal": 5645,
      "Ġcontemporary": 5646,
      "Ġsummary": 5647,
      "CE": 5648,
      "Ġvaluable": 5649,
      "ĠDespite": 5650,
      "Ġcloud": 5651,
      "ĠChampions": 5652,
      "ĠWorks": 5653,
      "Ġclosely": 5654,
      "Ġadministr": 5655,
      "Ġliquid": 5656,
      "rier": 5657,
      "Ġrank": 5658,
      "ansion": 5659,
      "Ġcolors": 5660,
      "ometimes": 5661,
      "rus": 5662,
      "ĠMars": 5663,
      "ĠForest": 5664,
      "Ġsatis": 5665,
      "cel": 5666,
      "Ġaren": 5667,
      "ĠNature": 5668,
      "Ġsend": 5669,
      "anes": 5670,
      "icks": 5671,
      "ĠBill": 5672,
      "Ġmountain": 5673,
      "TS": 5674,
      "Ġcup": 5675,
      "uls": 5676,
      "Ġattacks": 5677,
      "ocratic": 5678,
      "onst": 5679,
      "ĠCast": 5680,
      "Ġquot": 5681,
      "Ġsecure": 5682,
      "ĠMuslim": 5683,
      "igenous": 5684,
      "ï¼": 5685,
      "Ġnarrow": 5686,
      "ĠKeep": 5687,
      "Ġregularly": 5688,
      "Ġcomponent": 5689,
      "Ġplays": 5690,
      "Ġcourses": 5691,
      "Ġviews": 5692,
      "ĠBritain": 5693,
      "Ġcontributions": 5694,
      "ĠPop": 5695,
      "ĠData": 5696,
      "being": 5697,
      "Ġspiritual": 5698,
      "Ġcrisis": 5699,
      "Ġtheme": 5700,
      "Ġobtain": 5701,
      "Ġcenturies": 5702,
      "ï¬ģ": 5703,
      "Al": 5704,
      "Ġwalls": 5705,
      "ani": 5706,
      "ĠNote": 5707,
      "ĠOper": 5708,
      "Ġmeasured": 5709,
      "Ġadopted": 5710,
      "ĠPage": 5711,
      "ĠDise": 5712,
      "Ġsolve": 5713,
      "rosc": 5714,
      "fall": 5715,
      "abil": 5716,
      "Ġoutl": 5717,
      "Ġaccompl": 5718,
      "ĠSuper": 5719,
      "Ġphysics": 5720,
      "ĠPrim": 5721,
      "with": 5722,
      "Ġtun": 5723,
      "Ġexistence": 5724,
      "osal": 5725,
      "Ġinstitution": 5726,
      "Ġsnow": 5727,
      "racy": 5728,
      "ĠLit": 5729,
      "ĠThose": 5730,
      "Ġpictures": 5731,
      "ums": 5732,
      "ĠNorthern": 5733,
      "ults": 5734,
      "Ġdecline": 5735,
      "Ġprices": 5736,
      "nership": 5737,
      "ĠDid": 5738,
      "ificial": 5739,
      "Ġimmun": 5740,
      "Ġanxiety": 5741,
      "99": 5742,
      "Ġformal": 5743,
      "ĠHill": 5744,
      "estival": 5745,
      "ĠKh": 5746,
      "Ġpersons": 5747,
      "inson": 5748,
      "Ġplayer": 5749,
      "Ġbiological": 5750,
      "Ġvitamin": 5751,
      "rics": 5752,
      "Ġprominent": 5753,
      "Ġdescribes": 5754,
      "Ġcertainly": 5755,
      "Ġadministration": 5756,
      "hop": 5757,
      "Ġdiversity": 5758,
      "ĠHam": 5759,
      "Ġexchange": 5760,
      "ĠItaly": 5761,
      "Ġparties": 5762,
      "Ġvisible": 5763,
      "Ġarts": 5764,
      "ĠOnly": 5765,
      "uke": 5766,
      "lements": 5767,
      "ĠColumb": 5768,
      "ras": 5769,
      "icit": 5770,
      "acts": 5771,
      "phone": 5772,
      "Ġsupports": 5773,
      "Ġengage": 5774,
      "ĠMicro": 5775,
      "unched": 5776,
      "Ġapprec": 5777,
      "Ġrecognition": 5778,
      "kes": 5779,
      "roc": 5780,
      "Ġnutrition": 5781,
      "ini": 5782,
      "Ġpp": 5783,
      "Ġnit": 5784,
      "Ġshop": 5785,
      "Ġsongs": 5786,
      "Ġmort": 5787,
      "ĠTor": 5788,
      "Ġflat": 5789,
      "Ġspeaking": 5790,
      "ĠList": 5791,
      "Ġgenes": 5792,
      "Ġfoundation": 5793,
      "Ġbusinesses": 5794,
      "udden": 5795,
      "77": 5796,
      "].": 5797,
      "Ġsides": 5798,
      "Ġstick": 5799,
      "Ġexplained": 5800,
      "Ġrecognize": 5801,
      "oir": 5802,
      "otic": 5803,
      "uma": 5804,
      "ormal": 5805,
      "ĠScott": 5806,
      "Ġlooked": 5807,
      "Ġdocuments": 5808,
      "Åį": 5809,
      "Ġsyndrome": 5810,
      "Ġvalid": 5811,
      "Ġ1960": 5812,
      "ĠReport": 5813,
      "Ġsufficient": 5814,
      "Ġrub": 5815,
      "ĠOverview": 5816,
      "Ġroute": 5817,
      "Ġvocabulary": 5818,
      "Ġod": 5819,
      "ĠCamp": 5820,
      "Ġcars": 5821,
      "ĠLeague": 5822,
      "ĠOrig": 5823,
      "Ġdiscussed": 5824,
      "ĠServices": 5825,
      "Ġexplanation": 5826,
      "ĠPsych": 5827,
      "Ġvast": 5828,
      "Ġprison": 5829,
      "If": 5830,
      "ano": 5831,
      "ĠTem": 5832,
      "ellect": 5833,
      "ĠDar": 5834,
      "Ġmarks": 5835,
      "Ġfluid": 5836,
      "Ġaccurate": 5837,
      "Ġstated": 5838,
      "inder": 5839,
      "iled": 5840,
      "Ġrecovery": 5841,
      "Ġparticles": 5842,
      "Ġfundamental": 5843,
      "Ġepis": 5844,
      "Ġweap": 5845,
      "Ġmarine": 5846,
      "Ġinstrument": 5847,
      "ĠBank": 5848,
      "Ġchildhood": 5849,
      "Ġflag": 5850,
      "ĠConn": 5851,
      "Ġmusical": 5852,
      "Ġdriving": 5853,
      "Ġinvestment": 5854,
      "ipped": 5855,
      "Ġmoral": 5856,
      "Ġdrawing": 5857,
      "You": 5858,
      "onomy": 5859,
      "idden": 5860,
      "Ġwave": 5861,
      "eck": 5862,
      "ĠItalian": 5863,
      "Ġraise": 5864,
      "Ġadding": 5865,
      "Ġperiods": 5866,
      "df": 5867,
      "lo": 5868,
      "ĠMill": 5869,
      "anta": 5870,
      "alled": 5871,
      "Ġ1996": 5872,
      "Ġmuscles": 5873,
      "Ġimproving": 5874,
      "gu": 5875,
      "level": 5876,
      "Ġnations": 5877,
      "oviet": 5878,
      "Ġpresc": 5879,
      "Ġsmart": 5880,
      "ĠControl": 5881,
      "Ġmac": 5882,
      "ĠGall": 5883,
      "Ġwear": 5884,
      "ĠThough": 5885,
      "Ġbright": 5886,
      "Ġrepeated": 5887,
      "AF": 5888,
      "ĠIreland": 5889,
      "agues": 5890,
      "luding": 5891,
      "Ġaccessible": 5892,
      "Ġteams": 5893,
      "Ġsick": 5894,
      "ĠAND": 5895,
      "Ġotherwise": 5896,
      "erves": 5897,
      "Ġreader": 5898,
      "comp": 5899,
      "mes": 5900,
      "Ġsamples": 5901,
      "Ġdoll": 5902,
      "iform": 5903,
      "essions": 5904,
      "Ġvote": 5905,
      "Ġcompr": 5906,
      "enses": 5907,
      "Ġproducing": 5908,
      "ĠHistorical": 5909,
      "Ġsenior": 5910,
      "ĠRights": 5911,
      "Ġconcentration": 5912,
      "ĠSpecial": 5913,
      "gal": 5914,
      "Ġpublication": 5915,
      "Ġcandid": 5916,
      "Ġpush": 5917,
      "ingly": 5918,
      "Ġchain": 5919,
      "Ġhundreds": 5920,
      "--|": 5921,
      "Ġdisapp": 5922,
      "text": 5923,
      "Ġgene": 5924,
      "Ġamb": 5925,
      "ĠNatural": 5926,
      "Ġeditor": 5927,
      "Ġhouses": 5928,
      "long": 5929,
      "ĠCre": 5930,
      "ĠChicago": 5931,
      "ypes": 5932,
      "Ġwildlife": 5933,
      "ĠFlorida": 5934,
      "Ġconcrete": 5935,
      "eper": 5936,
      "Ġgall": 5937,
      "ĠKen": 5938,
      "anged": 5939,
      "venue": 5940,
      "Ġopening": 5941,
      "ĠFrank": 5942,
      "Ġsignificance": 5943,
      "Ġswim": 5944,
      "Ġnurs": 5945,
      "ĠAp": 5946,
      "abits": 5947,
      "ĠWriting": 5948,
      "Ġtouch": 5949,
      "OM": 5950,
      "ca": 5951,
      "kin": 5952,
      "Ġmit": 5953,
      "Ġmur": 5954,
      "ĠEqu": 5955,
      "Ġmedium": 5956,
      "Ġsubstance": 5957,
      "pping": 5958,
      "Ġchoices": 5959,
      "Ġemployees": 5960,
      "inet": 5961,
      "aph": 5962,
      "Ġappointed": 5963,
      "century": 5964,
      "ĠAuthor": 5965,
      "ĠSuch": 5966,
      "Ġprevention": 5967,
      "Ġphenomen": 5968,
      "ban": 5969,
      "Ġsatell": 5970,
      "Ġsteel": 5971,
      "DF": 5972,
      "VID": 5973,
      "omy": 5974,
      "celer": 5975,
      "ifts": 5976,
      "Ġscene": 5977,
      "ĠAdminist": 5978,
      "Ġportion": 5979,
      "Ar": 5980,
      "Ġtried": 5981,
      "isters": 5982,
      "olute": 5983,
      "ĠMen": 5984,
      "Ġprinciple": 5985,
      "Ġprocedures": 5986,
      "Ġcontrolled": 5987,
      "Ġfrag": 5988,
      "Ġcolour": 5989,
      "ATION": 5990,
      "Ġmunicip": 5991,
      "ola": 5992,
      "iration": 5993,
      "ĠClin": 5994,
      "Ġsubstant": 5995,
      "iat": 5996,
      "ĠWood": 5997,
      "istan": 5998,
      "umin": 5999,
      "Ġdescription": 6000,
      "har": 6001,
      "Ġstret": 6002,
      "Ġmulti": 6003,
      "free": 6004,
      "isp": 6005,
      "Ġmobile": 6006,
      "Ġschem": 6007,
      "Ġdepartment": 6008,
      "apping": 6009,
      "Ġcontaining": 6010,
      "ĠJews": 6011,
      "Ġvehicles": 6012,
      "43": 6013,
      "Ġdu": 6014,
      "igan": 6015,
      "Ġshift": 6016,
      "Ġmaintenance": 6017,
      "Ġpainting": 6018,
      "Ġguidelines": 6019,
      "rations": 6020,
      "ĠSar": 6021,
      "ĠBusiness": 6022,
      "']": 6023,
      "Ġsuitable": 6024,
      "Ġreprodu": 6025,
      "Ġincreasingly": 6026,
      "Ġapart": 6027,
      "ĠISBN": 6028,
      "Ġopinion": 6029,
      "IP": 6030,
      "ĠWal": 6031,
      "Ġoffering": 6032,
      "Ġinfected": 6033,
      "CA": 6034,
      "Ġtherm": 6035,
      "active": 6036,
      "Ġminimum": 6037,
      "ĠÂ·": 6038,
      "Ġcircumst": 6039,
      "Ġcorrespond": 6040,
      "Ġwants": 6041,
      "ĠDiff": 6042,
      "Ġbread": 6043,
      "Ġthemes": 6044,
      "ĠClub": 6045,
      "what": 6046,
      "Ġcontributed": 6047,
      "Ġlik": 6048,
      "ĠSund": 6049,
      "Ġedge": 6050,
      "Ġscholars": 6051,
      "rey": 6052,
      "Ġsan": 6053,
      "olve": 6054,
      "Ġ185": 6055,
      "Ġprompt": 6056,
      "Ġelection": 6057,
      "Ġaccepted": 6058,
      "ĠCheck": 6059,
      "Ġalgorith": 6060,
      "Ġpoly": 6061,
      "Ġtalking": 6062,
      "Ġimplementation": 6063,
      "itative": 6064,
      "Ġhyper": 6065,
      "Ġax": 6066,
      "inity": 6067,
      "icon": 6068,
      "Ġlocations": 6069,
      "Ġextent": 6070,
      "net": 6071,
      "Ġelectronic": 6072,
      "LE": 6073,
      "Ġaqu": 6074,
      "ĠLabor": 6075,
      "ĠCentre": 6076,
      "Ġthin": 6077,
      "acing": 6078,
      "Ġvs": 6079,
      "Ġsimpl": 6080,
      "xts": 6081,
      "Ġ['": 6082,
      "Ġtells": 6083,
      "ĠCurrent": 6084,
      "pat": 6085,
      "roid": 6086,
      "stood": 6087,
      "Ġ1995": 6088,
      "Ġfeedback": 6089,
      "Ġmoist": 6090,
      "Ġtro": 6091,
      "ĠHaw": 6092,
      "Ġselection": 6093,
      "Ġdiscovery": 6094,
      "Ġworldwide": 6095,
      "vironments": 6096,
      "Ġprecise": 6097,
      "Ġsuc": 6098,
      "Ġsalt": 6099,
      "Ġmarriage": 6100,
      "ĠLook": 6101,
      "Ġsweet": 6102,
      "ĠMartin": 6103,
      "orrow": 6104,
      "Ġnine": 6105,
      "Ġgun": 6106,
      "Ġ36": 6107,
      "There": 6108,
      "Ġframework": 6109,
      "rans": 6110,
      "ĠSoviet": 6111,
      "Ġchief": 6112,
      "ĠOcean": 6113,
      "Ġelected": 6114,
      "ylv": 6115,
      "Ġ500": 6116,
      "Ġrepresented": 6117,
      "Ġnearby": 6118,
      "Ġconcerned": 6119,
      "Ġobtained": 6120,
      "Ġcentre": 6121,
      "ĠAdv": 6122,
      "Ġtank": 6123,
      "Ġthor": 6124,
      "Ġnaturally": 6125,
      "which": 6126,
      "asters": 6127,
      "Ġdeaths": 6128,
      "mm": 6129,
      "itt": 6130,
      "ĠPers": 6131,
      "ĠStart": 6132,
      "Ġextract": 6133,
      "ĠResources": 6134,
      "Ġarrange": 6135,
      "agon": 6136,
      "Ġcapable": 6137,
      "Ġlisten": 6138,
      "New": 6139,
      "Ġcatch": 6140,
      "Ġhero": 6141,
      "Ġ1997": 6142,
      "ĠColor": 6143,
      "Ġphotograph": 6144,
      "Ġmixed": 6145,
      "ĠUr": 6146,
      "exp": 6147,
      "Ġhappy": 6148,
      "Ġpaid": 6149,
      "ĠYet": 6150,
      "ml": 6151,
      "Ġproport": 6152,
      "Ġcovers": 6153,
      "ĠAdd": 6154,
      "ĠPrinc": 6155,
      "Ġexpressed": 6156,
      "Ġharvest": 6157,
      "cture": 6158,
      "utch": 6159,
      "Ġannounced": 6160,
      "Ġhorse": 6161,
      "Ġenable": 6162,
      "Ġnoise": 6163,
      "Ġmere": 6164,
      "ĠCH": 6165,
      "ĠBooks": 6166,
      "Ġworkshe": 6167,
      "Ġcreates": 6168,
      "Ġauthorities": 6169,
      "Ġdebate": 6170,
      "eers": 6171,
      "ĠScot": 6172,
      "ĠSciences": 6173,
      "Ġmassive": 6174,
      "Ġrapidly": 6175,
      "Ġagencies": 6176,
      "Ġpossibly": 6177,
      "Ġpotentially": 6178,
      "Ġyounger": 6179,
      "esity": 6180,
      "ĠHIV": 6181,
      "ella": 6182,
      "Ġextended": 6183,
      "stein": 6184,
      "500": 6185,
      "ĠOh": 6186,
      "Sh": 6187,
      "ĠBig": 6188,
      "Ġreplaced": 6189,
      "Ġprofessionals": 6190,
      "oan": 6191,
      "Ġ<": 6192,
      "ima": 6193,
      "ĠLess": 6194,
      "ourage": 6195,
      "41": 6196,
      "Ġadvert": 6197,
      "Ġlaunched": 6198,
      "Ġintelligence": 6199,
      "88": 6200,
      "Ġapparent": 6201,
      "Ġmovements": 6202,
      "ĠIII": 6203,
      "Ġtail": 6204,
      "Ġhaz": 6205,
      "Ġpref": 6206,
      "Ġsoldiers": 6207,
      "LA": 6208,
      "zen": 6209,
      "Ġlots": 6210,
      "Ġtested": 6211,
      "Ġparticipation": 6212,
      "ĠÂ©": 6213,
      "ĠOpen": 6214,
      "wing": 6215,
      "ita": 6216,
      "rox": 6217,
      "Ġstreet": 6218,
      "Ġcopy": 6219,
      "ali": 6220,
      "196": 6221,
      "ĠBir": 6222,
      "Ġdepends": 6223,
      "Ġbridge": 6224,
      "Ġgenerations": 6225,
      "ĠSet": 6226,
      "ady": 6227,
      "Ġdemonstrate": 6228,
      "Ġtwice": 6229,
      "Ġjustice": 6230,
      "Ġconstructed": 6231,
      "Ġearned": 6232,
      "Ġremaining": 6233,
      "Ġcrow": 6234,
      "Ġpair": 6235,
      "ohn": 6236,
      "Ġmatch": 6237,
      "ivalent": 6238,
      "Ġsin": 6239,
      "ĠBrown": 6240,
      "Ġcomments": 6241,
      "ĠDivision": 6242,
      "Ġends": 6243,
      "ĠYoung": 6244,
      "spec": 6245,
      "Ġble": 6246,
      "ĠIndust": 6247,
      "Ġparticipate": 6248,
      "Ġcommunicate": 6249,
      "lymp": 6250,
      "Ġmanaged": 6251,
      "rapy": 6252,
      "IM": 6253,
      "Ġtrial": 6254,
      "Ġfasc": 6255,
      "Ġbow": 6256,
      "Ġadap": 6257,
      "Ġroof": 6258,
      "lishing": 6259,
      "Ġagreement": 6260,
      "ĠVirginia": 6261,
      "Ġbudget": 6262,
      "ĠSaint": 6263,
      "igation": 6264,
      "add": 6265,
      "Ġproduces": 6266,
      "Ġcalls": 6267,
      "Ġopposite": 6268,
      "ĠJohns": 6269,
      "Ġswitch": 6270,
      "ora": 6271,
      "alse": 6272,
      "ican": 6273,
      "Ġstem": 6274,
      "ĠLast": 6275,
      "Ġ1950": 6276,
      "Ġarms": 6277,
      "Ġtrained": 6278,
      "ivery": 6279,
      "othes": 6280,
      "olester": 6281,
      "Ġharmful": 6282,
      "Ġbrand": 6283,
      "bur": 6284,
      "Ġmamm": 6285,
      "Ġpron": 6286,
      "ashion": 6287,
      "Ġpermanent": 6288,
      "Ġpolitics": 6289,
      "ĠComput": 6290,
      "Ġcomparison": 6291,
      "Ġdatabase": 6292,
      ")**": 6293,
      "thlet": 6294,
      "ogy": 6295,
      "Ġacknow": 6296,
      "Ġsigned": 6297,
      "bi": 6298,
      "Ġfill": 6299,
      "iciency": 6300,
      "erent": 6301,
      "ribe": 6302,
      "Ġsuffer": 6303,
      "ĠAS": 6304,
      "Ġ32": 6305,
      "Ġmillions": 6306,
      "Ġhusband": 6307,
      "pre": 6308,
      "ĠJun": 6309,
      "ffee": 6310,
      "Ġsupplement": 6311,
      "Ġsubs": 6312,
      "Ġcrucial": 6313,
      "edag": 6314,
      "Ġfell": 6315,
      "ĠEst": 6316,
      "ictionary": 6317,
      "eren": 6318,
      "Ġrecip": 6319,
      "inking": 6320,
      "inations": 6321,
      "Ġmoon": 6322,
      "ĠTim": 6323,
      "atever": 6324,
      "ĠDig": 6325,
      "Ġuns": 6326,
      "Ġshell": 6327,
      "raining": 6328,
      "Ġstarts": 6329,
      "Ġbiology": 6330,
      "Ġarchitecture": 6331,
      "point": 6332,
      "itc": 6333,
      "Ġhunt": 6334,
      "ĠNative": 6335,
      "Ġsharing": 6336,
      "iana": 6337,
      "ĠUnit": 6338,
      "Ġissued": 6339,
      "Ġveter": 6340,
      "Ġinitially": 6341,
      "Ġingred": 6342,
      "ato": 6343,
      "Ġgather": 6344,
      "ocracy": 6345,
      "Ġenvironments": 6346,
      "ĠThree": 6347,
      "igned": 6348,
      "Ġeastern": 6349,
      "ĠRevolution": 6350,
      "Ġdance": 6351,
      "Ġconclusion": 6352,
      "ĠRock": 6353,
      "Ġsentences": 6354,
      "Ġratio": 6355,
      "izer": 6356,
      "Ġmeters": 6357,
      "ĠValley": 6358,
      "Ġdecrease": 6359,
      "onia": 6360,
      "aria": 6361,
      "Ġimper": 6362,
      "Ġconscious": 6363,
      "Ġnetworks": 6364,
      "itudes": 6365,
      "mic": 6366,
      "atre": 6367,
      "Ġentry": 6368,
      "Ġimprovement": 6369,
      "ĠGlobal": 6370,
      "hand": 6371,
      "Ġ)": 6372,
      "uses": 6373,
      "Ġproteins": 6374,
      "He": 6375,
      "Ġpure": 6376,
      "ĠBudd": 6377,
      "Ġadequ": 6378,
      "Ġindex": 6379,
      "Ġcultures": 6380,
      "Ġcrime": 6381,
      "hist": 6382,
      "Ġeld": 6383,
      "Ġacts": 6384,
      "Ġexpensive": 6385,
      "Ġsurvive": 6386,
      "ĠRetrieved": 6387,
      "ĠEmpire": 6388,
      "Ġenab": 6389,
      "Ġplayers": 6390,
      "Ġinjuries": 6391,
      "Ġ`": 6392,
      "Ġsell": 6393,
      "Ġglob": 6394,
      "Ġancest": 6395,
      "05": 6396,
      "Ġcompl": 6397,
      "isco": 6398,
      "Ġevaluation": 6399,
      "Ġhousing": 6400,
      "Ġcardi": 6401,
      "ĠCreat": 6402,
      "ĠNations": 6403,
      "Ġtexts": 6404,
      "oven": 6405,
      "Ġsurf": 6406,
      "Ġpositions": 6407,
      "Ġinject": 6408,
      "rovers": 6409,
      "Ġscore": 6410,
      "Ġcomputers": 6411,
      "ĠAssess": 6412,
      "Ġentirely": 6413,
      "Ġemotions": 6414,
      "Ġrevealed": 6415,
      "icians": 6416,
      "ĠMa": 6417,
      "ĠPri": 6418,
      "âĢĻ.": 6419,
      "79": 6420,
      "Ġsed": 6421,
      "Ġfinished": 6422,
      "Ġsections": 6423,
      "ĠMu": 6424,
      "Ġsurvival": 6425,
      "Ġaw": 6426,
      "Ġnotable": 6427,
      "Ġminim": 6428,
      "Ġdomin": 6429,
      "Ġclaims": 6430,
      "Ġhonor": 6431,
      "Ġacquired": 6432,
      "ĠEngineering": 6433,
      "olesterol": 6434,
      "Ġchosen": 6435,
      "ĠHead": 6436,
      "Ġentered": 6437,
      "Ġmyth": 6438,
      "ĠDoes": 6439,
      "ĠÂ£": 6440,
      "Ġmanufacturing": 6441,
      "inn": 6442,
      "aser": 6443,
      "estyle": 6444,
      "Ġunlike": 6445,
      "ropical": 6446,
      "Ġ65": 6447,
      "ndom": 6448,
      "icate": 6449,
      "ĠSometimes": 6450,
      "Ġintellect": 6451,
      "ĠViet": 6452,
      "Ġheritage": 6453,
      "Ġpsychological": 6454,
      "Ġwalking": 6455,
      "85": 6456,
      "ĠTre": 6457,
      "ĠMeth": 6458,
      "isted": 6459,
      "Ġbroken": 6460,
      "Ġshapes": 6461,
      "Ġcart": 6462,
      "Ġbones": 6463,
      "Ġstored": 6464,
      "ĠPan": 6465,
      "ema": 6466,
      "throp": 6467,
      "ĠDown": 6468,
      "ĠOlymp": 6469,
      "Ġknew": 6470,
      "Ġunknown": 6471,
      "Ġparalle": 6472,
      "ĠIrish": 6473,
      "Ġneighbor": 6474,
      "ĠÎ": 6475,
      "ĠStar": 6476,
      "Ġintervention": 6477,
      "Ġconfidence": 6478,
      "Ġnewspaper": 6479,
      "How": 6480,
      "rors": 6481,
      "ester": 6482,
      "ĠTown": 6483,
      "ĠCrit": 6484,
      "dule": 6485,
      "Ġalongside": 6486,
      "ĠUSA": 6487,
      "ĠSwed": 6488,
      "Ġdivision": 6489,
      "Ġaer": 6490,
      "Ġwish": 6491,
      "Ġstages": 6492,
      "ĠUt": 6493,
      "aks": 6494,
      "Ġsky": 6495,
      "IR": 6496,
      "Ġmand": 6497,
      "omach": 6498,
      "body": 6499,
      "under": 6500,
      "organ": 6501,
      "Ġdoor": 6502,
      "Ġdiscip": 6503,
      "Ġholds": 6504,
      "Ġwarming": 6505,
      "ĠCarolina": 6506,
      "Ġfilled": 6507,
      "elled": 6508,
      "Ġarmy": 6509,
      "teen": 6510,
      "ĠResp": 6511,
      "Ġruns": 6512,
      "Ġfailed": 6513,
      "ifications": 6514,
      "Ġgenerate": 6515,
      "Ġprogramme": 6516,
      "Ġcircuit": 6517,
      "Ġcircumstances": 6518,
      "ĠPlant": 6519,
      "Ġinteraction": 6520,
      "indu": 6521,
      "Ġgram": 6522,
      "Ġru": 6523,
      "Ġtele": 6524,
      "ishment": 6525,
      "Ġregist": 6526,
      "Ġpercentage": 6527,
      "ĠGrade": 6528,
      "Ġsucceed": 6529,
      "prof": 6530,
      "king": 6531,
      "ĠSil": 6532,
      "Ġgard": 6533,
      "riend": 6534,
      "ĠKar": 6535,
      "Ġcounty": 6536,
      "Ġsuccessfully": 6537,
      "ĠSecret": 6538,
      "awn": 6539,
      "ctic": 6540,
      "Ġpartners": 6541,
      "airy": 6542,
      "Ġsudden": 6543,
      "Ġtoler": 6544,
      "ĠSouthern": 6545,
      "ĠFour": 6546,
      "ĠVer": 6547,
      "Ġsheet": 6548,
      "Ġdefe": 6549,
      "Ġbiggest": 6550,
      "Un": 6551,
      "Ġcomposed": 6552,
      "Ġpoem": 6553,
      "Ġfacility": 6554,
      "Ġturns": 6555,
      "ĠStation": 6556,
      "ĠImp": 6557,
      "Ġcollaboration": 6558,
      "Ġultimately": 6559,
      "Ġtall": 6560,
      "aming": 6561,
      "ĠMot": 6562,
      "abeth": 6563,
      "Ġunless": 6564,
      "Ġparam": 6565,
      "rid": 6566,
      "hedule": 6567,
      "ĠAccess": 6568,
      "aped": 6569,
      "OW": 6570,
      "heim": 6571,
      "Ġsession": 6572,
      "Ġimpossible": 6573,
      "ĠVit": 6574,
      "Ġinvolving": 6575,
      "ĠCOVID": 6576,
      "Ġconsistent": 6577,
      "Ġinsects": 6578,
      "Ġsod": 6579,
      "uality": 6580,
      "Ġorganisms": 6581,
      "Ph": 6582,
      "Ġhealthcare": 6583,
      "Ġ75": 6584,
      "ĠClimate": 6585,
      "Ġdepart": 6586,
      "ĠGoogle": 6587,
      "gov": 6588,
      "erals": 6589,
      "Ġexercises": 6590,
      "Ġbehaviors": 6591,
      "Ġguidance": 6592,
      "onn": 6593,
      "Ġwaves": 6594,
      "Ġdiox": 6595,
      "Ġyield": 6596,
      "ĠIns": 6597,
      "ishop": 6598,
      "Ġsole": 6599,
      "Ġdifficulty": 6600,
      "Ġresponses": 6601,
      "________________________________": 6602,
      "Ġliver": 6603,
      "Ġstands": 6604,
      "ĠRome": 6605,
      "Ġdensity": 6606,
      "oston": 6607,
      "Ġcarefully": 6608,
      "Ġfootball": 6609,
      "Ġbreathing": 6610,
      "Ġongoing": 6611,
      "ĠNut": 6612,
      "Ġclar": 6613,
      "Ġgrew": 6614,
      "Ġhabits": 6615,
      "Ġpersu": 6616,
      "Ġabsolute": 6617,
      "Ġforests": 6618,
      "riers": 6619,
      "Ġuniverse": 6620,
      "Ġmissing": 6621,
      "ĠTit": 6622,
      "195": 6623,
      "Ġroutine": 6624,
      "ĠCareer": 6625,
      "fish": 6626,
      "95": 6627,
      "bury": 6628,
      "rance": 6629,
      "rons": 6630,
      "reed": 6631,
      "ĠPet": 6632,
      "gebra": 6633,
      "Ġrandom": 6634,
      "Ġ1991": 6635,
      "Ġofficers": 6636,
      "ĠSummary": 6637,
      "Ġinstructions": 6638,
      "Ġphilosophy": 6639,
      "Ġantibiot": 6640,
      "empl": 6641,
      "Ġreactions": 6642,
      "Ġmm": 6643,
      "Ġdental": 6644,
      "ĠEth": 6645,
      "ĠLater": 6646,
      "ritis": 6647,
      "ĠComple": 6648,
      "Ġcenters": 6649,
      "Ġlatter": 6650,
      "74": 6651,
      "she": 6652,
      "ĠTable": 6653,
      "ulpt": 6654,
      "ĠBab": 6655,
      "ache": 6656,
      "Ġmechanism": 6657,
      "Ġcapture": 6658,
      "Ġexperiments": 6659,
      "ĠSource": 6660,
      "umes": 6661,
      "Ġ300": 6662,
      "Ġsensitive": 6663,
      "ĠFinally": 6664,
      "itter": 6665,
      "ette": 6666,
      "ĠHy": 6667,
      "ĠFort": 6668,
      "Ġdestroyed": 6669,
      "ĠFollowing": 6670,
      "TH": 6671,
      "ĠEffect": 6672,
      "ighter": 6673,
      "Ġerror": 6674,
      "Ġbroader": 6675,
      "Ġfly": 6676,
      "ĠInit": 6677,
      "Ġended": 6678,
      "akespe": 6679,
      "Ġderived": 6680,
      "SP": 6681,
      "mun": 6682,
      "Ġpull": 6683,
      "Ġunderstood": 6684,
      "Ġfiles": 6685,
      "ĠMean": 6686,
      "Ex": 6687,
      "ĠMic": 6688,
      "ograp": 6689,
      "Ġlearners": 6690,
      "Ġbeneficial": 6691,
      "ĠAmong": 6692,
      "Ġbear": 6693,
      "ĠFund": 6694,
      "Ġshot": 6695,
      "Ġagency": 6696,
      "Ġremote": 6697,
      "Ġpretty": 6698,
      "ĠOs": 6699,
      "ĠProdu": 6700,
      "ĠQuest": 6701,
      "Ġtrip": 6702,
      "Ġstruggle": 6703,
      "bu": 6704,
      "een": 6705,
      "rine": 6706,
      "ala": 6707,
      "Ġborder": 6708,
      "osa": 6709,
      "Ġscript": 6710,
      "Ġmetab": 6711,
      "Ġindicates": 6712,
      "Ġobservations": 6713,
      "Ġbio": 6714,
      "Ġrelief": 6715,
      "Ġencouraged": 6716,
      "ĠEr": 6717,
      "ested": 6718,
      "ĠJac": 6719,
      "ĠTeam": 6720,
      "akespeare": 6721,
      "kins": 6722,
      "Ġseeing": 6723,
      "Ġrestrict": 6724,
      "Ġboy": 6725,
      "Ġrow": 6726,
      "rimination": 6727,
      "Ġtiny": 6728,
      "Ġblocks": 6729,
      "Ġpossibility": 6730,
      "Ġtruly": 6731,
      "Ġcutting": 6732,
      "ĠConstitution": 6733,
      "Ġenem": 6734,
      "idential": 6735,
      "Ġmedication": 6736,
      "Ġafford": 6737,
      "ĠPractice": 6738,
      "Ġfib": 6739,
      "ĠAP": 6740,
      "ĠCross": 6741,
      "Ġdecade": 6742,
      "Ġfourth": 6743,
      "ealand": 6744,
      "dem": 6745,
      "ribed": 6746,
      "Ġsettlement": 6747,
      "asty": 6748,
      "Ġcontamin": 6749,
      "Ġraw": 6750,
      "Ġaccident": 6751,
      "Ġnormally": 6752,
      "Ġimmediate": 6753,
      "Ġturning": 6754,
      "01": 6755,
      "ĠCirc": 6756,
      "andon": 6757,
      "Ġowned": 6758,
      "ĠNetwork": 6759,
      "Ġfossil": 6760,
      "'m": 6761,
      "Ġroughly": 6762,
      "Ġdesigns": 6763,
      "Ġmaintaining": 6764,
      "Ġconventional": 6765,
      "Cl": 6766,
      "Ġcommission": 6767,
      "Ġinvent": 6768,
      "Ġfunds": 6769,
      "Ġsilver": 6770,
      "uous": 6771,
      "Ġstomach": 6772,
      "ĠEastern": 6773,
      "Ġconsumers": 6774,
      "72": 6775,
      "Ġreject": 6776,
      "ĠSP": 6777,
      "ĠMid": 6778,
      "Ġrig": 6779,
      "Ġintake": 6780,
      "Ġteen": 6781,
      "Ġdecide": 6782,
      "Ġeveryday": 6783,
      "Ġowners": 6784,
      "Ġprotocol": 6785,
      "Ġ1994": 6786,
      "ĠStudent": 6787,
      "ascular": 6788,
      "ãĢ": 6789,
      "Ġsight": 6790,
      "Ġpresents": 6791,
      "Ġassociation": 6792,
      "ih": 6793,
      "ceived": 6794,
      "ĠHand": 6795,
      "Ġplanned": 6796,
      "Ġconnections": 6797,
      "Ġaccounts": 6798,
      "Ġvisitors": 6799,
      "Ġmagazine": 6800,
      "Ġlaboratory": 6801,
      "ĠClick": 6802,
      "Ġgenerated": 6803,
      "Ġoperate": 6804,
      "Ġdrawn": 6805,
      "Ġlaunch": 6806,
      "42": 6807,
      "86": 6808,
      "hav": 6809,
      "erior": 6810,
      "Ġworse": 6811,
      "Ġwilling": 6812,
      "Ġslowly": 6813,
      "sen": 6814,
      "Ġspaces": 6815,
      "Ġcloser": 6816,
      "UN": 6817,
      "orous": 6818,
      "ĠWay": 6819,
      "Ġsport": 6820,
      "Ġaged": 6821,
      "Ġfeat": 6822,
      "Ġfaced": 6823,
      "Ġethnic": 6824,
      "Ġsupplies": 6825,
      "%)": 6826,
      "inction": 6827,
      "eting": 6828,
      "izabeth": 6829,
      "vard": 6830,
      "Ġfract": 6831,
      "arant": 6832,
      "ĠRail": 6833,
      "Ġpartnership": 6834,
      "Ġacids": 6835,
      "Ġinterf": 6836,
      "Ġconstitution": 6837,
      "Ġemployment": 6838,
      "Ġwitness": 6839,
      "Ġpump": 6840,
      "eless": 6841,
      "Ġdefine": 6842,
      "Ġcolleagues": 6843,
      "?âĢĿ": 6844,
      "pan": 6845,
      "hered": 6846,
      "ĠSupport": 6847,
      "tage": 6848,
      "ĠIT": 6849,
      "ĠLight": 6850,
      "Ġrid": 6851,
      "Ġtransportation": 6852,
      "Ġinflammation": 6853,
      "ĠLittle": 6854,
      "Ġmeal": 6855,
      "Ġunable": 6856,
      "Ġdesire": 6857,
      "Ġgalax": 6858,
      "ĠAge": 6859,
      "Ġ2022": 6860,
      "Ġpartner": 6861,
      "Ġunus": 6862,
      "Ġoperated": 6863,
      "Ġstanding": 6864,
      "ĠKingdom": 6865,
      "teries": 6866,
      "ulty": 6867,
      "Ġattached": 6868,
      "Ġoptim": 6869,
      "ĠâĨ": 6870,
      "ylvania": 6871,
      "ĠWil": 6872,
      "antly": 6873,
      "ears": 6874,
      "Ġremark": 6875,
      "ĠSpring": 6876,
      "ĠAngel": 6877,
      "Ġsequence": 6878,
      "ĠWord": 6879,
      "aka": 6880,
      "ĠParliament": 6881,
      "Ġfeatured": 6882,
      "DP": 6883,
      "onics": 6884,
      "Ġinner": 6885,
      "ĠTry": 6886,
      "ĠFarm": 6887,
      "anches": 6888,
      "ĠCambridge": 6889,
      "Ġfab": 6890,
      "ĠSus": 6891,
      "irty": 6892,
      "Ġvan": 6893,
      "ĠJul": 6894,
      "ricts": 6895,
      "Ġamaz": 6896,
      "Ġdispl": 6897,
      "Ġoutline": 6898,
      "Ġarchae": 6899,
      "Ġhydrogen": 6900,
      "igrants": 6901,
      "Ġpregnancy": 6902,
      "Ġbranch": 6903,
      "Ġserver": 6904,
      "ometry": 6905,
      "Ġexists": 6906,
      "outs": 6907,
      "rac": 6908,
      "ĠLim": 6909,
      "Ġ1992": 6910,
      "Ġfarming": 6911,
      "Ġpurchase": 6912,
      "ĠHospital": 6913,
      "Ġobst": 6914,
      "Ġmining": 6915,
      "Ġ1993": 6916,
      "uset": 6917,
      "olving": 6918,
      "tering": 6919,
      "anda": 6920,
      "Ġcamera": 6921,
      "Ġcards": 6922,
      "Ġdust": 6923,
      "Ġhole": 6924,
      "ĠAR": 6925,
      "Ġhandle": 6926,
      "Ġfocuses": 6927,
      "Ġevaluate": 6928,
      "ĠÐ": 6929,
      "riz": 6930,
      "ployment": 6931,
      "Ġtrouble": 6932,
      "such": 6933,
      "inating": 6934,
      "Ġcholesterol": 6935,
      "apse": 6936,
      "aked": 6937,
      "These": 6938,
      "ĠPolit": 6939,
      "American": 6940,
      "ĠCy": 6941,
      "Ġrelation": 6942,
      "Ġtransmission": 6943,
      "Ġfacing": 6944,
      "Ġmovie": 6945,
      "Ġzone": 6946,
      "Ġloved": 6947,
      "ctive": 6948,
      "ĠDou": 6949,
      "ĠName": 6950,
      "Ġcontained": 6951,
      "ĠAI": 6952,
      "ĠCorn": 6953,
      "ĠBal": 6954,
      "Ġtwenty": 6955,
      "Ġsignals": 6956,
      "including": 6957,
      "Ġmarkets": 6958,
      "Ġfewer": 6959,
      "Ġfeeding": 6960,
      "Ġfixed": 6961,
      "ĠPrimary": 6962,
      "va": 6963,
      "Ġgluc": 6964,
      "Ġoccasion": 6965,
      "Ġboys": 6966,
      "Ġarrived": 6967,
      "Ġbattery": 6968,
      "MP": 6969,
      "OD": 6970,
      "Ġrom": 6971,
      "Ġnob": 6972,
      "Ġring": 6973,
      "erman": 6974,
      "Ġcarb": 6975,
      "ĠPolicy": 6976,
      "Ġphoto": 6977,
      "ĠFilm": 6978,
      "Ġtroops": 6979,
      "Sc": 6980,
      "Ġcos": 6981,
      "Ġcats": 6982,
      "Ġacceler": 6983,
      "Ġequivalent": 6984,
      "ĠIdent": 6985,
      "ĠOl": 6986,
      "orses": 6987,
      "Ġexpansion": 6988,
      "class": 6989,
      "Ġwindow": 6990,
      "Ġmedications": 6991,
      "fts": 6992,
      "ounce": 6993,
      "aret": 6994,
      "earing": 6995,
      "ustain": 6996,
      "Ġstatistics": 6997,
      "Ġepid": 6998,
      "Ġachievement": 6999,
      "iary": 7000,
      "ĠWik": 7001,
      "Ġcompounds": 7002,
      "ĠView": 7003,
      "Ġacres": 7004,
      "Ġbrings": 7005,
      "ĠContin": 7006,
      "Ġnegot": 7007,
      "Ġmagnetic": 7008,
      "ĠWH": 7009,
      "ĠColl": 7010,
      "Ġdelivery": 7011,
      "Ġmoves": 7012,
      "ĠGeorg": 7013,
      "ipping": 7014,
      "Ġgained": 7015,
      "Ġneck": 7016,
      "Ġdisabilities": 7017,
      "scale": 7018,
      "ĠHoly": 7019,
      "bles": 7020,
      "Ġobjectives": 7021,
      "Ġcombat": 7022,
      "Ġinstalled": 7023,
      "%.": 7024,
      "à¥": 7025,
      "ĠProp": 7026,
      "ĠDen": 7027,
      "Ġplate": 7028,
      "ruption": 7029,
      "Ġflav": 7030,
      "worth": 7031,
      "Ġ----------------": 7032,
      "awa": 7033,
      "Ġobjective": 7034,
      "ĠOxford": 7035,
      "ĠDisease": 7036,
      "06": 7037,
      "Ġtube": 7038,
      "ĠSir": 7039,
      "ĠNov": 7040,
      "Ġplot": 7041,
      "Ġregulations": 7042,
      "Ġinteractions": 7043,
      "ĠNaz": 7044,
      "Ġabstract": 7045,
      "Ġdoctors": 7046,
      "Ġsmooth": 7047,
      "Ġlistening": 7048,
      "Ġconsumer": 7049,
      "Ġemployed": 7050,
      "CD": 7051,
      "normal": 7052,
      "Ġtheore": 7053,
      "Ġdent": 7054,
      "ĠCS": 7055,
      "Ġgreatly": 7056,
      "Ġnecessarily": 7057,
      "Ġaims": 7058,
      "ivered": 7059,
      "Ġspending": 7060,
      "Ġsubsequent": 7061,
      "making": 7062,
      "ĠLib": 7063,
      "Ġresolution": 7064,
      "Ġoverl": 7065,
      "Ġowner": 7066,
      "ician": 7067,
      "Ġstyles": 7068,
      "inding": 7069,
      "Ġinsurance": 7070,
      "Ġenglish": 7071,
      "Ġlimits": 7072,
      "Ġ\\(": 7073,
      "ĠModern": 7074,
      "lar": 7075,
      "vity": 7076,
      "Ġspok": 7077,
      "Ġbreeding": 7078,
      "Ġliteracy": 7079,
      "Ġfiber": 7080,
      "stone": 7081,
      "ĠNon": 7082,
      "Ġregul": 7083,
      "Ġguitar": 7084,
      "Ġapproved": 7085,
      "Ġzero": 7086,
      "Ġpreparation": 7087,
      "Ġourselves": 7088,
      "Ġboost": 7089,
      "ĠLevel": 7090,
      "Ġreceiving": 7091,
      "ĠSunday": 7092,
      "09": 7093,
      "cons": 7094,
      "Ġstatements": 7095,
      "ĠMedia": 7096,
      "Ġreflects": 7097,
      "Ġsales": 7098,
      "sets": 7099,
      "ĠLove": 7100,
      "Ġcontrovers": 7101,
      "rene": 7102,
      "Ġelectron": 7103,
      "Ġcommitted": 7104,
      "ĠMichigan": 7105,
      "Ġlegislation": 7106,
      "Ġcong": 7107,
      "ercury": 7108,
      "Ġvideos": 7109,
      "Ġchallenging": 7110,
      "Ġcoastal": 7111,
      "word": 7112,
      "Ġfashion": 7113,
      "Ġ1930": 7114,
      "Ġmanip": 7115,
      "Ġrelax": 7116,
      "Ġstring": 7117,
      "ĠOnline": 7118,
      "Ġflower": 7119,
      "Ġhoriz": 7120,
      "Ġmathematical": 7121,
      "Ġexpanded": 7122,
      "ĠJohnson": 7123,
      "uing": 7124,
      "Ġinequ": 7125,
      "ĠEp": 7126,
      "Ġcomputing": 7127,
      "For": 7128,
      "then": 7129,
      "Ġtaste": 7130,
      "Ġfold": 7131,
      "rooms": 7132,
      "Ġstable": 7133,
      "Ġorient": 7134,
      "ĠRom": 7135,
      "ĠChristmas": 7136,
      "ommod": 7137,
      "door": 7138,
      "night": 7139,
      "Ġtheories": 7140,
      "ibl": 7141,
      "Ġindependence": 7142,
      "BS": 7143,
      "sell": 7144,
      "Ġpoetry": 7145,
      "ĠMethod": 7146,
      "omic": 7147,
      "ĠEU": 7148,
      "Ġvarieties": 7149,
      "Ġlegacy": 7150,
      "Ġasking": 7151,
      "IG": 7152,
      "Ġmild": 7153,
      "Ġdrain": 7154,
      "irt": 7155,
      "achuset": 7156,
      "Ġcoffee": 7157,
      "achusetts": 7158,
      "Ġprove": 7159,
      "osh": 7160,
      "Ġshut": 7161,
      "Ġunderlying": 7162,
      "ĠWeek": 7163,
      "Ġartificial": 7164,
      "Is": 7165,
      "RA": 7166,
      "Ġwine": 7167,
      "Ġmaps": 7168,
      "ocation": 7169,
      "Ġabund": 7170,
      "Ġwriters": 7171,
      "ĠArea": 7172,
      "Ġangle": 7173,
      "Ġcustomers": 7174,
      "Ġbreath": 7175,
      "edagogical": 7176,
      "Ġahead": 7177,
      "ĠLow": 7178,
      "Ġlegs": 7179,
      "ĠMinister": 7180,
      "Ġintegrated": 7181,
      "forcement": 7182,
      "ĠTO": 7183,
      "ĠSever": 7184,
      "Ġflo": 7185,
      "ĠForce": 7186,
      "nsylvania": 7187,
      "Ġdifficulties": 7188,
      "Ġmechanisms": 7189,
      "Ġwait": 7190,
      "Se": 7191,
      "bar": 7192,
      "ĠPo": 7193,
      "itely": 7194,
      "Ġjudge": 7195,
      "hythm": 7196,
      "On": 7197,
      "othe": 7198,
      "ĠBoston": 7199,
      "Ġguard": 7200,
      "Ġlegisl": 7201,
      "ĠPass": 7202,
      "Ġabilities": 7203,
      "Ġputting": 7204,
      "Ġcircle": 7205,
      "ĠTeachers": 7206,
      "books": 7207,
      "fortunately": 7208,
      "ether": 7209,
      "amber": 7210,
      "ĠGarden": 7211,
      "Ġaccum": 7212,
      "Ġindustries": 7213,
      "Ġcaptured": 7214,
      "iy": 7215,
      "Ġdistributed": 7216,
      "Ġseconds": 7217,
      "Ġpassage": 7218,
      "Ġ1988": 7219,
      "uracy": 7220,
      "oln": 7221,
      "ĠDate": 7222,
      "Ġsurve": 7223,
      "ĠNext": 7224,
      "Ġphotos": 7225,
      "Ġintegr": 7226,
      "Ġadvantages": 7227,
      "Ġvessels": 7228,
      "Te": 7229,
      "ran": 7230,
      "ĠAL": 7231,
      "Ġforg": 7232,
      "ĠMaster": 7233,
      "weight": 7234,
      "ĠStrateg": 7235,
      "UT": 7236,
      "ront": 7237,
      "ĠHon": 7238,
      "Ġabandon": 7239,
      "ĠHeart": 7240,
      "ĠSafety": 7241,
      "gers": 7242,
      "Ġcoc": 7243,
      "itu": 7244,
      "ĠNever": 7245,
      "Ġfrequent": 7246,
      "isk": 7247,
      "ĠTri": 7248,
      "Ġcrew": 7249,
      "Ġholding": 7250,
      "Ġfighting": 7251,
      "Ġbeliefs": 7252,
      "Ġundert": 7253,
      "Ġpossess": 7254,
      "Ġdescript": 7255,
      "Ġlifestyle": 7256,
      "Ġmolecules": 7257,
      "ĠJeff": 7258,
      "De": 7259,
      "etics": 7260,
      "operation": 7261,
      "Ġpoison": 7262,
      "ĠTeaching": 7263,
      "Ġparallel": 7264,
      "2010": 7265,
      "Ġkilomet": 7266,
      "aired": 7267,
      "but": 7268,
      "oted": 7269,
      "advant": 7270,
      "Ġengaged": 7271,
      "ĠBlue": 7272,
      "Ġdamaged": 7273,
      "ackson": 7274,
      "Ġcryst": 7275,
      "Ġstability": 7276,
      "irus": 7277,
      "ĠWall": 7278,
      "Ġmanager": 7279,
      "ographical": 7280,
      "Ġcategory": 7281,
      "ĠMassachusetts": 7282,
      "health": 7283,
      "Ġren": 7284,
      "ulin": 7285,
      "Ġknows": 7286,
      "Ġrising": 7287,
      "Ġreduces": 7288,
      "ĠZealand": 7289,
      "Ġsubstances": 7290,
      "Ġcalcium": 7291,
      "ĠPennsylvania": 7292,
      "Ġconfirmed": 7293,
      "pet": 7294,
      "ĠSand": 7295,
      "aya": 7296,
      "anger": 7297,
      "Ġtracks": 7298,
      "ĠSpain": 7299,
      "73": 7300,
      "hma": 7301,
      "alities": 7302,
      "Ġstroke": 7303,
      "Ġexamine": 7304,
      "Ġofficer": 7305,
      "cul": 7306,
      "Ġfu": 7307,
      "ĠFace": 7308,
      "Ġsolving": 7309,
      "Ġcrim": 7310,
      "ounded": 7311,
      "Ġtraditions": 7312,
      "Ġinfant": 7313,
      "ĠSchools": 7314,
      "ĠBuilding": 7315,
      "Ġsacr": 7316,
      "Ġcab": 7317,
      "ĠPur": 7318,
      "ĠVen": 7319,
      "issance": 7320,
      "Ġhomework": 7321,
      "Ġmachines": 7322,
      "ĠWilliams": 7323,
      "Ġmessages": 7324,
      "Ġrecommendations": 7325,
      "Ġinnovative": 7326,
      "Ġvulnerable": 7327,
      "Ġships": 7328,
      "Ġblind": 7329,
      "aws": 7330,
      "Ġrivers": 7331,
      "Ġdemonstrated": 7332,
      "ĠCourse": 7333,
      "ĠWrite": 7334,
      "ĠSenior": 7335,
      "ĠFigure": 7336,
      "When": 7337,
      "Ġske": 7338,
      "Ġagreed": 7339,
      "Ġobesity": 7340,
      "Ġdelivered": 7341,
      "Ġassigned": 7342,
      "sm": 7343,
      "Ġhur": 7344,
      "ĠSat": 7345,
      "ĠHor": 7346,
      "ippi": 7347,
      "ĠMond": 7348,
      "rowing": 7349,
      "Ġreliable": 7350,
      "Ġgrows": 7351,
      "Ġpurs": 7352,
      "Ġseeking": 7353,
      "Ġhormone": 7354,
      "atal": 7355,
      "ĠFair": 7356,
      "Ġclassical": 7357,
      "Ġpy": 7358,
      "ĠFire": 7359,
      "Ġrefuge": 7360,
      "Ġ1989": 7361,
      "Ġfishing": 7362,
      "while": 7363,
      "ĠConservation": 7364,
      "how": 7365,
      "Ġtap": 7366,
      "ĠBC": 7367,
      "Ġvac": 7368,
      "osion": 7369,
      "ipedia": 7370,
      "aki": 7371,
      "ĠChange": 7372,
      "Ġ400": 7373,
      "Sp": 7374,
      "Ġinhib": 7375,
      "ĠSqu": 7376,
      "berry": 7377,
      "coming": 7378,
      "elfare": 7379,
      "Ġchemistry": 7380,
      "Ġinfluenced": 7381,
      "Ġfer": 7382,
      "ĠCode": 7383,
      "Ġseat": 7384,
      "ieval": 7385,
      "Ġexamination": 7386,
      "Ġintroduce": 7387,
      "Ġinstruments": 7388,
      "ĠSecurity": 7389,
      "Ġinspired": 7390,
      "ĠMississ": 7391,
      "gent": 7392,
      "ĠSup": 7393,
      "Ġitem": 7394,
      "Ġappoint": 7395,
      "Ġdisturb": 7396,
      "Ġcriteria": 7397,
      "ja": 7398,
      "pm": 7399,
      "aining": 7400,
      "Ġsculpt": 7401,
      "Ġexplo": 7402,
      "Ġpreventing": 7403,
      "Ġquantum": 7404,
      "ĠAdditionally": 7405,
      "71": 7406,
      "IA": 7407,
      "SL": 7408,
      "ĠMrs": 7409,
      "ĠBang": 7410,
      "Ġoverview": 7411,
      "Ġfavorite": 7412,
      "Ġterritory": 7413,
      "ati": 7414,
      "acent": 7415,
      "Ġjump": 7416,
      "Ġschedule": 7417,
      "Ġflash": 7418,
      "thew": 7419,
      "Ġinvestigation": 7420,
      "Ġvirtual": 7421,
      "Ġven": 7422,
      "arsh": 7423,
      "?\"": 7424,
      "opy": 7425,
      "Ġattended": 7426,
      "cycl": 7427,
      "Ġ150": 7428,
      "Ġdelay": 7429,
      "Ġprincipal": 7430,
      "Ġille": 7431,
      "ĠMS": 7432,
      "thur": 7433,
      "ĠEssay": 7434,
      "ĠColumbia": 7435,
      "ĠScotland": 7436,
      "Ġshock": 7437,
      "ansas": 7438,
      "Ġproven": 7439,
      "Ġfalls": 7440,
      "Ġlists": 7441,
      "Ġclust": 7442,
      "Ġ38": 7443,
      "Ġlayers": 7444,
      "Ġdioxide": 7445,
      "Ä±": 7446,
      "Ġfalse": 7447,
      "ĠMur": 7448,
      "Ġindeed": 7449,
      "ĠWithout": 7450,
      "Ġgreenhouse": 7451,
      "Ġcovering": 7452,
      "Ġcontinuous": 7453,
      "asant": 7454,
      "Ġresil": 7455,
      "Ġsched": 7456,
      "ĠUnfortunately": 7457,
      "Ġawarded": 7458,
      "Ad": 7459,
      "icide": 7460,
      "ĠCA": 7461,
      "iratory": 7462,
      "ĠMah": 7463,
      "eli": 7464,
      "osph": 7465,
      "Ġchap": 7466,
      "Ġwheel": 7467,
      "Ġ33": 7468,
      "Ġsmoking": 7469,
      "Ġburning": 7470,
      "avery": 7471,
      "sk": 7472,
      "ĠGree": 7473,
      "ĠResearchers": 7474,
      "Ġcontainer": 7475,
      "Ġbranches": 7476,
      "ĠShort": 7477,
      "Ġcorner": 7478,
      ".*": 7479,
      "ĠCreek": 7480,
      "ĠPy": 7481,
      "Ġencoun": 7482,
      "Ġfulf": 7483,
      "ĠQuestions": 7484,
      "ori": 7485,
      "Ġfro": 7486,
      "Ġforget": 7487,
      "Ġmatters": 7488,
      "Ġdiagnosed": 7489,
      "Ġcriminal": 7490,
      "roat": 7491,
      "Ġhat": 7492,
      "Ġseg": 7493,
      "Ġdiscrimination": 7494,
      "ependent": 7495,
      "rant": 7496,
      "Ġadvent": 7497,
      "Ġbutter": 7498,
      "Ġdiag": 7499,
      "Ġattempts": 7500,
      "Ġrenewable": 7501,
      "from": 7502,
      "orig": 7503,
      "ilarly": 7504,
      "Ġusage": 7505,
      "Ġmaintained": 7506,
      "enger": 7507,
      "Ġbroadcast": 7508,
      "Ġrecycling": 7509,
      "zil": 7510,
      "itals": 7511,
      "arks": 7512,
      "Ġholes": 7513,
      "Ġnose": 7514,
      "olar": 7515,
      "ĠAud": 7516,
      "oding": 7517,
      "Ġdecor": 7518,
      "Ġoblig": 7519,
      "espread": 7520,
      "ĠQueen": 7521,
      "Ġsplit": 7522,
      "Ġadapted": 7523,
      "âĢĻ,": 7524,
      "Ġarrest": 7525,
      "Ġeffectiveness": 7526,
      "Ġdepos": 7527,
      "Ġresulted": 7528,
      "ĠAdministration": 7529,
      "hire": 7530,
      "nut": 7531,
      "Ġcav": 7532,
      "istent": 7533,
      "Ġexceed": 7534,
      "Ġwasn": 7535,
      "Ġsmoke": 7536,
      "ĠAnalysis": 7537,
      "Ġengagement": 7538,
      "Ġcommittee": 7539,
      "Ġthousand": 7540,
      "ĠStandards": 7541,
      "iger": 7542,
      "Ġplus": 7543,
      "Ġbringing": 7544,
      "Ġearthqu": 7545,
      "Ġcarrying": 7546,
      "Ġconversation": 7547,
      "02": 7548,
      "ĠVan": 7549,
      "ventions": 7550,
      "Ġmembr": 7551,
      "Ġfilms": 7552,
      "Ġgirl": 7553,
      "herent": 7554,
      "Ġpin": 7555,
      "Ġbiod": 7556,
      "ĠTrust": 7557,
      "ĠCub": 7558,
      "ĠChart": 7559,
      "Ġconstantly": 7560,
      "ĠParents": 7561,
      "Ġglucose": 7562,
      "Ã¤": 7563,
      "ãĥ": 7564,
      "Ġastr": 7565,
      "Ġguarant": 7566,
      "Ġpowers": 7567,
      "Ġaccompan": 7568,
      "Ġtub": 7569,
      "Ġnone": 7570,
      "Ġgap": 7571,
      "istical": 7572,
      "Ġaccommod": 7573,
      "Ġcontrols": 7574,
      "Ġsummar": 7575,
      "Ġadequate": 7576,
      "fast": 7577,
      "vin": 7578,
      "Ġsought": 7579,
      "ĠpH": 7580,
      "Ġstre": 7581,
      "Ġrepair": 7582,
      "Ġensuring": 7583,
      "Gen": 7584,
      "car": 7585,
      "hent": 7586,
      "ĠLy": 7587,
      "Ġintense": 7588,
      "Ġaccuracy": 7589,
      "Ġmode": 7590,
      "Ġbeauty": 7591,
      "bow": 7592,
      "Ġdates": 7593,
      "ĠOffic": 7594,
      "2011": 7595,
      "ĠPhot": 7596,
      "Ġvolcan": 7597,
      "clusions": 7598,
      "yer": 7599,
      "Ġrose": 7600,
      "Ġsupposed": 7601,
      "ĠPlace": 7602,
      "ĠPerform": 7603,
      "ĠHarvard": 7604,
      "Ġcooking": 7605,
      "ĠProtection": 7606,
      "Ġgranted": 7607,
      "hus": 7608,
      "Ġconven": 7609,
      "opl": 7610,
      "ĠFar": 7611,
      "ĠStory": 7612,
      "rition": 7613,
      "xture": 7614,
      "ediat": 7615,
      "Ġversions": 7616,
      "Ġsettings": 7617,
      "Ġkidney": 7618,
      "ĠAgriculture": 7619,
      "bour": 7620,
      "ga": 7621,
      "ĠSection": 7622,
      "Ġwhatever": 7623,
      "ĠDev": 7624,
      "ĠMathemat": 7625,
      "Ġpanel": 7626,
      "Re": 7627,
      "tes": 7628,
      "Ġamerican": 7629,
      "Ġnewly": 7630,
      "Ġrealize": 7631,
      "Ġprinted": 7632,
      "Ġupdated": 7633,
      "Ġuniversal": 7634,
      "Ġstations": 7635,
      "ĠDutch": 7636,
      "Ġcharacterized": 7637,
      "Ġdoubt": 7638,
      "Ġsatellite": 7639,
      "68": 7640,
      "elly": 7641,
      "opes": 7642,
      "using": 7643,
      "ogether": 7644,
      "Ġbabies": 7645,
      "Ġdanger": 7646,
      "Le": 7647,
      "gs": 7648,
      "Ġreward": 7649,
      "soft": 7650,
      "Ġplanting": 7651,
      "Ġstrategic": 7652,
      "Ġimplemented": 7653,
      "ĠMcC": 7654,
      "Ġconcluded": 7655,
      "ĠPersonal": 7656,
      "zed": 7657,
      "Ġ]": 7658,
      "Ġnan": 7659,
      "ĠRout": 7660,
      "Ġcho": 7661,
      "erving": 7662,
      "Ġgrades": 7663,
      "Ġscientist": 7664,
      "Ġdomain": 7665,
      "ĠElizabeth": 7666,
      "Ġneutral": 7667,
      "ba": 7668,
      "Ġgone": 7669,
      "irds": 7670,
      "ĠMax": 7671,
      "ĠCoast": 7672,
      "Ġremoval": 7673,
      "ĠAssessment": 7674,
      "Ġfeaturing": 7675,
      "Ġsessions": 7676,
      "ects": 7677,
      "ĠObs": 7678,
      "atively": 7679,
      "Ġcareful": 7680,
      "ĠMississippi": 7681,
      "ĠType": 7682,
      "Ġlie": 7683,
      "ĠAgency": 7684,
      "ĠHa": 7685,
      "Ġoutbre": 7686,
      "Ġindicated": 7687,
      "Ġrespectively": 7688,
      "Ġwidespread": 7689,
      "ĠFrancisco": 7690,
      "Ġfed": 7691,
      "illa": 7692,
      "ocal": 7693,
      "Ġflour": 7694,
      "EE": 7695,
      "HS": 7696,
      "Ġtons": 7697,
      "Ġbath": 7698,
      "Ġrely": 7699,
      "ĠCore": 7700,
      "ĠCard": 7701,
      "ĠIP": 7702,
      "ĠFoot": 7703,
      "Ġclothing": 7704,
      "Ġsurfaces": 7705,
      "inf": 7706,
      "ĠTotal": 7707,
      "ĠWas": 7708,
      "action": 7709,
      "Ġclient": 7710,
      "Ġprev": 7711,
      "olesc": 7712,
      "ĠBased": 7713,
      "Ġsubt": 7714,
      "Ġremind": 7715,
      "Ġcommitment": 7716,
      "Ġcategories": 7717,
      "Ġathlet": 7718,
      "Ġhun": 7719,
      "Ġnest": 7720,
      "quar": 7721,
      "ureau": 7722,
      "Ġfever": 7723,
      "mann": 7724,
      "Ġneighborhood": 7725,
      "Ġturb": 7726,
      "Ġpounds": 7727,
      "ĠPoint": 7728,
      "endar": 7729,
      "Ġinsight": 7730,
      "acco": 7731,
      "Ġdependent": 7732,
      "Ġpilot": 7733,
      "No": 7734,
      "yroid": 7735,
      "zer": 7736,
      "unc": 7737,
      "Ġmarketing": 7738,
      "Ġunders": 7739,
      "Ġvictims": 7740,
      "Ġcorporate": 7741,
      "Ġintellectual": 7742,
      "Ġsam": 7743,
      "Ġnerv": 7744,
      "outheast": 7745,
      "peror": 7746,
      "atern": 7747,
      "Ġvoltage": 7748,
      "Ġethical": 7749,
      "Ġframe": 7750,
      "Ġ?": 7751,
      "ĠCP": 7752,
      "ĠHard": 7753,
      "Ġintest": 7754,
      "Ġartistic": 7755,
      "Ġminute": 7756,
      "Ġstrongly": 7757,
      "ĠRecords": 7758,
      "ĠRemember": 7759,
      "Ġchannel": 7760,
      "yal": 7761,
      "ĠCup": 7762,
      "Ġstead": 7763,
      "Ġshaped": 7764,
      "produ": 7765,
      "Ġft": 7766,
      "Ġdys": 7767,
      "ĠWed": 7768,
      "Ġ1986": 7769,
      "Ġfocusing": 7770,
      "Ġroads": 7771,
      "Ġspectrum": 7772,
      "03": 7773,
      "char": 7774,
      "etary": 7775,
      "adel": 7776,
      "Ġtransp": 7777,
      "2015": 7778,
      "Ġ1940": 7779,
      "ĠPortug": 7780,
      "eenth": 7781,
      "htt": 7782,
      "Ġtut": 7783,
      "Ġpool": 7784,
      "Ġblow": 7785,
      "Ġislands": 7786,
      "Ġdeeper": 7787,
      "Ġplenty": 7788,
      "Ġmanif": 7789,
      "Ġevolved": 7790,
      "Ġclassic": 7791,
      "rolled": 7792,
      "gans": 7793,
      "yo": 7794,
      "esis": 7795,
      "icious": 7796,
      "Ġmice": 7797,
      "ilation": 7798,
      "omer": 7799,
      "ami": 7800,
      "ĠNumber": 7801,
      "Ġneur": 7802,
      "Ġrice": 7803,
      "ĠAsk": 7804,
      "Ġexperimental": 7805,
      "Ġphrase": 7806,
      "Ġdiameter": 7807,
      "'.": 7808,
      "Ġstake": 7809,
      "Ġchick": 7810,
      "una": 7811,
      "Ġempt": 7812,
      "Ġsitting": 7813,
      "Ġportray": 7814,
      "Ġexecutive": 7815,
      "Ġtong": 7816,
      "ĠCost": 7817,
      "Ġ1920": 7818,
      "iah": 7819,
      "Ġoutcome": 7820,
      "ohyd": 7821,
      "ĠOhio": 7822,
      "edu": 7823,
      "ĠMajor": 7824,
      "Ġscores": 7825,
      "Ġstructural": 7826,
      "Ġobservation": 7827,
      "Ġinnovation": 7828,
      "amine": 7829,
      "ĠVar": 7830,
      "ailability": 7831,
      "Ġautism": 7832,
      "Ġparas": 7833,
      "ĠImpro": 7834,
      "Ġgradually": 7835,
      "Ġdeclared": 7836,
      "ĠStandard": 7837,
      "Ġinterpretation": 7838,
      "ĠWildlife": 7839,
      "Ġingredients": 7840,
      "Ġà¤": 7841,
      "ĠAnc": 7842,
      "Ġlighting": 7843,
      "Ġdocumented": 7844,
      "Ġvariables": 7845,
      "kl": 7846,
      "Ġhall": 7847,
      "that": 7848,
      "Ġthanks": 7849,
      "Ġfunctional": 7850,
      "ĠPhysical": 7851,
      "Ġexcessive": 7852,
      "Ġunusual": 7853,
      "ĠSeveral": 7854,
      "OC": 7855,
      "ĠWales": 7856,
      "thritis": 7857,
      "opher": 7858,
      "Ġcontribution": 7859,
      "ĠChief": 7860,
      "Ġunion": 7861,
      "Ġhappening": 7862,
      "Ġmeasurements": 7863,
      "lastname": 7864,
      "ĠBattle": 7865,
      "AG": 7866,
      "edy": 7867,
      "ĠWalk": 7868,
      "quis": 7869,
      "Ġtea": 7870,
      "ĠAsian": 7871,
      "ĠProcess": 7872,
      "ĠCancer": 7873,
      "ĠAtlantic": 7874,
      "-|": 7875,
      "98": 7876,
      "bec": 7877,
      "Ġlake": 7878,
      "Ġproof": 7879,
      "plant": 7880,
      "Ġwarning": 7881,
      "Ġvariable": 7882,
      "Ġnitrogen": 7883,
      "ugh": 7884,
      "itual": 7885,
      "Ġpion": 7886,
      "Ġrecept": 7887,
      "ador": 7888,
      "Ġslaves": 7889,
      "aska": 7890,
      "html": 7891,
      "Ġmob": 7892,
      "Ġpermission": 7893,
      "Ġeducators": 7894,
      "Ġdemocracy": 7895,
      "Ġexpectations": 7896,
      "Ġinformed": 7897,
      "96": 7898,
      "Ġdisadvant": 7899,
      "Ġplane": 7900,
      "ĠMoreover": 7901,
      "Ġviruses": 7902,
      "ĠMountain": 7903,
      "dis": 7904,
      "ifted": 7905,
      "ulture": 7906,
      "______": 7907,
      "anned": 7908,
      "Ġfabric": 7909,
      "EF": 7910,
      "igious": 7911,
      "izz": 7912,
      "iano": 7913,
      "angered": 7914,
      "Ġanalyze": 7915,
      "Ġinn": 7916,
      "umps": 7917,
      "Ġrab": 7918,
      "Ġcleaning": 7919,
      "Ġestimates": 7920,
      "iability": 7921,
      "onym": 7922,
      "Ġfurn": 7923,
      "style": 7924,
      "ĠĠĠ": 7925,
      "Ġworry": 7926,
      "Ġscar": 7927,
      "Ġtract": 7928,
      "Ġcolumn": 7929,
      "Ġextend": 7930,
      "Ġexploration": 7931,
      "Ġspecialized": 7932,
      "ĠAvoid": 7933,
      "Ġimplications": 7934,
      "Ġhouseholds": 7935,
      "ĠLocal": 7936,
      "Ġinvolvement": 7937,
      "RC": 7938,
      "Ġtables": 7939,
      "eries": 7940,
      "Ġhidden": 7941,
      "ĠHot": 7942,
      "iki": 7943,
      "ĠEdward": 7944,
      "uten": 7945,
      "Ġuniform": 7946,
      "Ġexport": 7947,
      "ĠProduct": 7948,
      "Ġpersonnel": 7949,
      "ĠShow": 7950,
      "Ġcalories": 7951,
      "Ġfunctioning": 7952,
      "ĠSmall": 7953,
      "Ġepisode": 7954,
      "step": 7955,
      "ĠMD": 7956,
      "Ġwithd": 7957,
      "achel": 7958,
      "Ġwhereas": 7959,
      "Ġwindows": 7960,
      "Ġtitles": 7961,
      "Ġmoisture": 7962,
      "Bl": 7963,
      "ouri": 7964,
      "Ġdrought": 7965,
      "umer": 7966,
      "pling": 7967,
      "ĠWhit": 7968,
      "Ġtreating": 7969,
      "Ġaimed": 7970,
      "rin": 7971,
      "Ġmir": 7972,
      "Ġforming": 7973,
      "ospel": 7974,
      "Ġmeasurement": 7975,
      "Ġemphasis": 7976,
      "ĠOrganization": 7977,
      "ĠScientists": 7978,
      "ua": 7979,
      "uan": 7980,
      "igate": 7981,
      "oples": 7982,
      "Ġadvis": 7983,
      "Ġannually": 7984,
      "Ġintegration": 7985,
      "ĠSummer": 7986,
      "ĠFurthermore": 7987,
      "ao": 7988,
      "pdf": 7989,
      "wan": 7990,
      "otton": 7991,
      "ushed": 7992,
      "ecess": 7993,
      "Ġreferences": 7994,
      "ĠAmaz": 7995,
      "Ġsituated": 7996,
      "Ġinitiative": 7997,
      "Ġrailway": 7998,
      "amil": 7999,
      "uled": 8000,
      "apes": 8001,
      "2009": 8002,
      "Ġcelebrated": 8003,
      ".'": 8004,
      "icing": 8005,
      "ĠRh": 8006,
      "Ġearn": 8007,
      "Ġdistricts": 8008,
      "Ġminerals": 8009,
      "ĠSecretary": 8010,
      "iro": 8011,
      "Ġlip": 8012,
      "Ġdealing": 8013,
      "Ġsharp": 8014,
      "Ġflows": 8015,
      "Ġrarely": 8016,
      "ĠBackground": 8017,
      "Ġton": 8018,
      "Ġcord": 8019,
      "Ġmood": 8020,
      "angle": 8021,
      "Ġconsidering": 8022,
      "incoln": 8023,
      "Ġlights": 8024,
      "ĠMarine": 8025,
      "Ġreflecting": 8026,
      "ĠMinistry": 8027,
      "ĠHelp": 8028,
      "bing": 8029,
      "hyd": 8030,
      "Ġcas": 8031,
      "olt": 8032,
      "Ġscan": 8033,
      "Ġ48": 8034,
      "Ġdriven": 8035,
      "Ġescape": 8036,
      "Ġcomfortable": 8037,
      "Ã¨": 8038,
      "oured": 8039,
      "Ġprohib": 8040,
      "Ġchrom": 8041,
      "izations": 8042,
      "ropol": 8043,
      ".|": 8044,
      "IF": 8045,
      "rane": 8046,
      "ĠFact": 8047,
      "ĠKids": 8048,
      "rency": 8049,
      "Ġracial": 8050,
      "amps": 8051,
      "Ġpassing": 8052,
      "Ġoldest": 8053,
      "ĠFriday": 8054,
      "Ġcounsel": 8055,
      "Ġwider": 8056,
      "ĠProm": 8057,
      "Ġformula": 8058,
      "2014": 8059,
      "Ġslave": 8060,
      "Ġsuffered": 8061,
      "Ġirrit": 8062,
      "ĠPhilipp": 8063,
      "Ġdollars": 8064,
      "Ġwing": 8065,
      "asy": 8066,
      "ĠSanta": 8067,
      "Ġstores": 8068,
      "ĠMult": 8069,
      "ĠFather": 8070,
      "Ġrecover": 8071,
      "ĠSpe": 8072,
      "Ġprovider": 8073,
      "Ġtermin": 8074,
      "Ġquarter": 8075,
      "My": 8076,
      "medi": 8077,
      "tic": 8078,
      "esides": 8079,
      "iture": 8080,
      "Ġcompound": 8081,
      "Ġpreval": 8082,
      "Ġproved": 8083,
      "Ġbron": 8084,
      "Ġphysician": 8085,
      "Ġcomplicated": 8086,
      "km": 8087,
      "Ġcaught": 8088,
      "Ġstrict": 8089,
      "ĠPM": 8090,
      "istant": 8091,
      "occ": 8092,
      "Ġ55": 8093,
      "Ġmeasuring": 8094,
      "Ġinterpre": 8095,
      "Ġsurprising": 8096,
      "ĠDaniel": 8097,
      "Ġduty": 8098,
      "Ġmales": 8099,
      "Ġrational": 8100,
      "Ġagents": 8101,
      "2012": 8102,
      "Ġperforming": 8103,
      "Ġtemporary": 8104,
      "ĠUnderstanding": 8105,
      "Ġnerve": 8106,
      "Ġexception": 8107,
      "Ġfirstname": 8108,
      "Ġpharm": 8109,
      "azz": 8110,
      "Ġopposed": 8111,
      "regon": 8112,
      "Ġgraduate": 8113,
      "tw": 8114,
      "itivity": 8115,
      "ĠSem": 8116,
      "Ġsomewhat": 8117,
      "Ġcapabilities": 8118,
      "Ġ1984": 8119,
      "Ġpurchased": 8120,
      "riendly": 8121,
      "07": 8122,
      "oa": 8123,
      "Ġexclus": 8124,
      "ĠLuc": 8125,
      "rous": 8126,
      "ĠJim": 8127,
      "erty": 8128,
      "Ġconference": 8129,
      "Ġmicrob": 8130,
      "HD": 8131,
      "UL": 8132,
      "gien": 8133,
      "Ġinher": 8134,
      "Ġneither": 8135,
      "Ġrecording": 8136,
      "Ġacting": 8137,
      "Ġknowing": 8138,
      "Ġcertific": 8139,
      "Ġsaving": 8140,
      "ĠTour": 8141,
      "ĠGar": 8142,
      "Ġintent": 8143,
      "Ġouter": 8144,
      "ĠSpirit": 8145,
      "Ġtemple": 8146,
      "Ġreviews": 8147,
      "Ġfemales": 8148,
      "ĠBrazil": 8149,
      "Ġsubstantial": 8150,
      "Ġmerely": 8151,
      "ĠVietnam": 8152,
      "han": 8153,
      "ÂŃ": 8154,
      "Ġ39": 8155,
      "Ġpersonality": 8156,
      "Ġchest": 8157,
      "Ġrepresenting": 8158,
      "Ġfalling": 8159,
      "Ġheavily": 8160,
      ".âĢĻ": 8161,
      "isdom": 8162,
      "Ġfellow": 8163,
      "ĠMP": 8164,
      "ĠMach": 8165,
      "ĠRog": 8166,
      "Ġdisaster": 8167,
      "ailed": 8168,
      "holders": 8169,
      "Ġvegetation": 8170,
      "ECT": 8171,
      "ĠTitle": 8172,
      "cyclop": 8173,
      "NS": 8174,
      "Ġpit": 8175,
      "ĠPot": 8176,
      "ĠNic": 8177,
      "Ġownership": 8178,
      "Ġcolonies": 8179,
      "Ġfairly": 8180,
      "Ġsatisf": 8181,
      "Ġproportion": 8182,
      "ito": 8183,
      "alo": 8184,
      "Ġincident": 8185,
      "Ġmanaging": 8186,
      "Ġmodified": 8187,
      "Ġoccurring": 8188,
      "inois": 8189,
      "66": 8190,
      "gian": 8191,
      "mond": 8192,
      "Ġstuff": 8193,
      "Ġconj": 8194,
      "Ġchair": 8195,
      "ĠVe": 8196,
      "lected": 8197,
      "neys": 8198,
      "Ġpreserve": 8199,
      "2013": 8200,
      "ĠText": 8201,
      "Ġstronger": 8202,
      "Ġcattle": 8203,
      "Ġdynamic": 8204,
      "ĠMonday": 8205,
      "AB": 8206,
      "whel": 8207,
      "Ġles": 8208,
      "Ġ34": 8209,
      "Ġagent": 8210,
      "Ġinfect": 8211,
      "Ġengaging": 8212,
      "Ġrestaur": 8213,
      "Ġburied": 8214,
      "Ġtrends": 8215,
      "Ġnom": 8216,
      "idity": 8217,
      "ĠIV": 8218,
      "Ġalph": 8219,
      "ĠHung": 8220,
      "Ġran": 8221,
      "Ġincred": 8222,
      "ĠUnlike": 8223,
      "Ġdefense": 8224,
      "Ġinteractive": 8225,
      "Ġidentifying": 8226,
      "Ġtag": 8227,
      "Ġhosp": 8228,
      "ĠRaj": 8229,
      "Ġbiom": 8230,
      "Ġerrors": 8231,
      "ĠPrevention": 8232,
      "ĠSystems": 8233,
      "ĠSurvey": 8234,
      "Ġtransferred": 8235,
      "ĠCopyright": 8236,
      "Ġham": 8237,
      "amination": 8238,
      "ĠEmer": 8239,
      "ĠFred": 8240,
      "ivities": 8241,
      "Ġtrail": 8242,
      "Ġmaybe": 8243,
      "nee": 8244,
      "iations": 8245,
      "real": 8246,
      "alm": 8247,
      "amins": 8248,
      "ading": 8249,
      "Ġclim": 8250,
      "Ġsciences": 8251,
      "aneously": 8252,
      "ĠAgain": 8253,
      "ĠJersey": 8254,
      "lines": 8255,
      "ĠSong": 8256,
      "ĠBeg": 8257,
      "ĠLos": 8258,
      "aine": 8259,
      "Ġadds": 8260,
      "Ġevening": 8261,
      "Ġentertain": 8262,
      "ĠCorpor": 8263,
      "ĠModel": 8264,
      "Ġtropical": 8265,
      "Ġgro": 8266,
      "urning": 8267,
      "Ġequally": 8268,
      "Ġheads": 8269,
      "Ġmultip": 8270,
      "Ġdiscussions": 8271,
      "ĠLiteracy": 8272,
      "'d": 8273,
      "ĠTru": 8274,
      "Ġrent": 8275,
      "oly": 8276,
      "Ġforth": 8277,
      "ĠJackson": 8278,
      "ideo": 8279,
      "Ġ37": 8280,
      "Ġacute": 8281,
      "ontal": 8282,
      "Ġbreed": 8283,
      "Ġthreats": 8284,
      "Ġsustainability": 8285,
      "ĠConference": 8286,
      "Ġbottle": 8287,
      "Ġphenomenon": 8288,
      "ĠSupreme": 8289,
      "Ã¢": 8290,
      "Ġreaching": 8291,
      "ĠDue": 8292,
      "ourse": 8293,
      "Ġdesignated": 8294,
      "Ġslavery": 8295,
      "Ġregarded": 8296,
      "Ġseemed": 8297,
      "ĠWindows": 8298,
      "Ġfiction": 8299,
      "Ġbrows": 8300,
      "ĠMoon": 8301,
      "ĠBh": 8302,
      "Ġengineers": 8303,
      "Ġmechanical": 8304,
      "ĠColorado": 8305,
      "Ġsister": 8306,
      "itory": 8307,
      "ĠAwards": 8308,
      "Ġdirections": 8309,
      "ĠIran": 8310,
      "ais": 8311,
      "uro": 8312,
      "Ġtone": 8313,
      "Ġproceed": 8314,
      "ĠLu": 8315,
      "Ġadm": 8316,
      "ĠChall": 8317,
      "Ġrocks": 8318,
      "Ġreporting": 8319,
      "Ġprinting": 8320,
      "----------------------------------------------------------------": 8321,
      "Ġweapons": 8322,
      "ĠPrincip": 8323,
      "ĠTen": 8324,
      "ĠBern": 8325,
      "ĠAlbert": 8326,
      "Ġaffecting": 8327,
      "Ġemerging": 8328,
      "Ġvictory": 8329,
      "ĠHawai": 8330,
      "ĠProduction": 8331,
      "box": 8332,
      "Ġ%": 8333,
      "inning": 8334,
      "Ġfisher": 8335,
      "Ġworship": 8336,
      "Ġtranslation": 8337,
      "ĠAndrew": 8338,
      "ĠBeing": 8339,
      "Ġid": 8340,
      "ĠCr": 8341,
      "ĠInvest": 8342,
      "Ġpsychology": 8343,
      "ĠSolar": 8344,
      "Ġassignment": 8345,
      "heimer": 8346,
      "ials": 8347,
      "Ġinsert": 8348,
      "Ġrestoration": 8349,
      "Ġphotographs": 8350,
      "dr": 8351,
      "pes": 8352,
      "Ġarray": 8353,
      "Ġcoverage": 8354,
      "ĠIndians": 8355,
      "Ġecological": 8356,
      "Ġboat": 8357,
      "ĠIllinois": 8358,
      "Ġnervous": 8359,
      "Ġpestic": 8360,
      "Ġhorses": 8361,
      "iral": 8362,
      "ĠHaving": 8363,
      "ĠRest": 8364,
      "Ġmanual": 8365,
      "Ġtrauma": 8366,
      "ĠAssembly": 8367,
      "Ġcalling": 8368,
      "ĠOrder": 8369,
      "Ġlaid": 8370,
      "ĠArticle": 8371,
      "Ġmothers": 8372,
      "ĠMatthew": 8373,
      "Ġhypot": 8374,
      "Ġuncertain": 8375,
      "Ġweakness": 8376,
      "TER": 8377,
      "Ġcul": 8378,
      "Ġhoney": 8379,
      "ĠAM": 8380,
      "ĠCall": 8381,
      "etime": 8382,
      "Ġash": 8383,
      "adow": 8384,
      "Ġalive": 8385,
      "ĠFestival": 8386,
      "quir": 8387,
      "Ġspray": 8388,
      "aren": 8389,
      "Ġpeer": 8390,
      "Ġvariation": 8391,
      "Ġtowns": 8392,
      "Ġelder": 8393,
      "Ġtor": 8394,
      "ĠAT": 8395,
      "Ġbeings": 8396,
      "section": 8397,
      "ĠDaily": 8398,
      "ĠFish": 8399,
      "oga": 8400,
      "Ġshoot": 8401,
      "Ġemotion": 8402,
      "ĠTeacher": 8403,
      "Ġsubsid": 8404,
      "ders": 8405,
      "Ġrect": 8406,
      "iders": 8407,
      "ĠCE": 8408,
      "uts": 8409,
      "asses": 8410,
      "ĠExamples": 8411,
      "Ġrepresentative": 8412,
      "Ġweekly": 8413,
      "Ġaudio": 8414,
      "Ġtargets": 8415,
      "Ġadjacent": 8416,
      "called": 8417,
      "Ġbond": 8418,
      "Ġ|---|---|": 8419,
      "ĠJava": 8420,
      "ovascular": 8421,
      "athan": 8422,
      "Ġproviders": 8423,
      "Ġcoron": 8424,
      "Ġtissues": 8425,
      "Ġdriver": 8426,
      "Ġorgans": 8427,
      "usal": 8428,
      "agen": 8429,
      "Ġdisability": 8430,
      "Ġoverwhel": 8431,
      "Ġdesert": 8432,
      "Ġ1982": 8433,
      "Ġinitiatives": 8434,
      "Ġscreening": 8435,
      "ĠSon": 8436,
      "Ġconvey": 8437,
      "Ġhealing": 8438,
      "osqu": 8439,
      "ĠOregon": 8440,
      "Ġgenus": 8441,
      "Ġcharged": 8442,
      "Ġprotecting": 8443,
      "AND": 8444,
      "ĠIslamic": 8445,
      "Ġconverted": 8446,
      "Ġadministrative": 8447,
      "Ġworksheets": 8448,
      "04": 8449,
      "Ġ;": 8450,
      "Ġca": 8451,
      "Ġfats": 8452,
      "iva": 8453,
      "ĠLincoln": 8454,
      "Ġlock": 8455,
      "Ġfung": 8456,
      "ognition": 8457,
      "ilson": 8458,
      "Ġdestruction": 8459,
      "ucky": 8460,
      "Ġholiday": 8461,
      "Ġwonderful": 8462,
      "iological": 8463,
      "orph": 8464,
      "sem": 8465,
      "ĠGames": 8466,
      "Ġabnormal": 8467,
      "ruit": 8468,
      "Ġclimb": 8469,
      "Ġdesired": 8470,
      "Ġminister": 8471,
      "Ġclassified": 8472,
      "ĠChristians": 8473,
      "Ġcouncil": 8474,
      "Ġearliest": 8475,
      "Ġquantity": 8476,
      "Ġcommunications": 8477,
      "oys": 8478,
      "Ġtack": 8479,
      "alog": 8480,
      "icts": 8481,
      "Ġgrain": 8482,
      "ĠIndones": 8483,
      "Ġorigins": 8484,
      "2007": 8485,
      "ĠGener": 8486,
      "regation": 8487,
      "Ġabsence": 8488,
      "ĠWhether": 8489,
      "Ġscheme": 8490,
      "Ġalign": 8491,
      "ĠRose": 8492,
      "Ġtechnological": 8493,
      "Ġcharacteristic": 8494,
      "Ġconsideration": 8495,
      "Ġcopper": 8496,
      "Ġcorrectly": 8497,
      "ĠVitamin": 8498,
      "arn": 8499,
      "ĠPaper": 8500,
      "ivest": 8501,
      "Ġlecture": 8502,
      "Ġworst": 8503,
      "ibli": 8504,
      "Ġdisrupt": 8505,
      "Ġmeals": 8506,
      "Ġevil": 8507,
      "Ġpeers": 8508,
      "Ġbrush": 8509,
      "Ġviewed": 8510,
      "Ġfunded": 8511,
      "ĠCountry": 8512,
      "Ġactively": 8513,
      "Ġassistant": 8514,
      "Ġstrengthen": 8515,
      "ĠFrancis": 8516,
      "foot": 8517,
      "Ġcash": 8518,
      "opic": 8519,
      "ĠLat": 8520,
      "ochem": 8521,
      "Ġunited": 8522,
      "Ġprovision": 8523,
      "ĠIslands": 8524,
      "ĠLee": 8525,
      "Ġmarg": 8526,
      "Ġlogical": 8527,
      "ĠVolume": 8528,
      "Ġgrammar": 8529,
      "yan": 8530,
      "Ġcin": 8531,
      "ĠAction": 8532,
      "elesc": 8533,
      "Ġasp": 8534,
      "ĠAsh": 8535,
      "Ġrespiratory": 8536,
      "Ġenthus": 8537,
      "ĠEnter": 8538,
      "Ġrepresentation": 8539,
      "Ġmountains": 8540,
      "ĠSeries": 8541,
      "One": 8542,
      "Ġbomb": 8543,
      "ĠTraining": 8544,
      "Ġlosing": 8545,
      "ĠStan": 8546,
      "Ġattitude": 8547,
      "Ġlabour": 8548,
      "Ġobserve": 8549,
      "ĠTransport": 8550,
      "Ġqualities": 8551,
      "Ġexhibit": 8552,
      "Ġprayer": 8553,
      "OP": 8554,
      "rary": 8555,
      "enced": 8556,
      "ĠNorm": 8557,
      "ĠKent": 8558,
      "Ġaddiction": 8559,
      "Ġherb": 8560,
      "Ġvisited": 8561,
      "Ġclaimed": 8562,
      "Ġimagine": 8563,
      "Ġvolunteers": 8564,
      "................": 8565,
      "Ġacknowled": 8566,
      "Ġamazing": 8567,
      "mers": 8568,
      "inter": 8569,
      "Ġbeat": 8570,
      "Ġbees": 8571,
      "ĠRay": 8572,
      "ĠFed": 8573,
      "Ġovercome": 8574,
      "Ġequation": 8575,
      "Ġexamined": 8576,
      "Ġsensor": 8577,
      "Ġestablishment": 8578,
      "Ġboundaries": 8579,
      "GB": 8580,
      "LS": 8581,
      "gon": 8582,
      "Ð°": 8583,
      "eness": 8584,
      "oric": 8585,
      "Ġmine": 8586,
      "Ġdress": 8587,
      "ĠEvent": 8588,
      "Ġjur": 8589,
      "Ġmineral": 8590,
      "Ġoccas": 8591,
      "Ġopinions": 8592,
      "All": 8593,
      "mod": 8594,
      "Ġcensus": 8595,
      "ĠAff": 8596,
      "Ġgast": 8597,
      "ĠMove": 8598,
      "ĠNE": 8599,
      "ĠLew": 8600,
      "Ġauthent": 8601,
      "Ġlanding": 8602,
      "Ġreveal": 8603,
      "western": 8604,
      "ä¸": 8605,
      "Ġmerg": 8606,
      "Ġpreced": 8607,
      "Ġanywhere": 8608,
      "ymph": 8609,
      "Ġregardless": 8610,
      "Ġcontinuing": 8611,
      "Ġmolecular": 8612,
      "ĠDescription": 8613,
      "profit": 8614,
      "58": 8615,
      "Be": 8616,
      "Ġom": 8617,
      "Ġestimate": 8618,
      "Ġprofit": 8619,
      "Ġspecialist": 8620,
      "ĠContact": 8621,
      "ĠPerhaps": 8622,
      "ĠDarwin": 8623,
      "disc": 8624,
      "rat": 8625,
      "Ġwelfare": 8626,
      "Ġflying": 8627,
      "lete": 8628,
      "ĠAC": 8629,
      "ĠCell": 8630,
      "otype": 8631,
      "Ġranging": 8632,
      "Ġclothes": 8633,
      "Ġdetection": 8634,
      "Ġpointed": 8635,
      "ĠMaryland": 8636,
      "Ġeliminate": 8637,
      ".;": 8638,
      "craft": 8639,
      "Ġcited": 8640,
      "ĠMagn": 8641,
      "ĠRight": 8642,
      "ĠFac": 8643,
      "Ġusual": 8644,
      "Ġwheat": 8645,
      "Ġglac": 8646,
      "Ġfinish": 8647,
      "bean": 8648,
      "Ġbigger": 8649,
      "Ġtaxes": 8650,
      "Ġsettled": 8651,
      "reprene": 8652,
      "ĠGeorgia": 8653,
      "page": 8654,
      "ĠTok": 8655,
      "Ġease": 8656,
      "Ġstudio": 8657,
      "Ġproductivity": 8658,
      "anna": 8659,
      "Ġtelling": 8660,
      "esh": 8661,
      "Ġduration": 8662,
      "Ġnice": 8663,
      "otes": 8664,
      "ela": 8665,
      "Ġconclusions": 8666,
      "ifting": 8667,
      "ĠEll": 8668,
      "ortion": 8669,
      "ostic": 8670,
      "ĠVill": 8671,
      "ĠRepresent": 8672,
      "Ġsymbols": 8673,
      "Ġcelebrate": 8674,
      "ĠScottish": 8675,
      "Ġtrials": 8676,
      "Ġprogressive": 8677,
      "ĠMilitary": 8678,
      "Ġwatching": 8679,
      "ĠAdditional": 8680,
      "{\\": 8681,
      "ĠTerm": 8682,
      "ĠCit": 8683,
      "adder": 8684,
      "ĠPak": 8685,
      "Ġalter": 8686,
      "ĠDog": 8687,
      "ĠGM": 8688,
      "Ġplain": 8689,
      "ptions": 8690,
      "asts": 8691,
      "ditional": 8692,
      "Ġestate": 8693,
      "Ġconsiderable": 8694,
      "Ġwaiting": 8695,
      "Ġsubsequently": 8696,
      "Ġlungs": 8697,
      "ĠOrigin": 8698,
      "inth": 8699,
      "ĠHur": 8700,
      "ude": 8701,
      "Ġidentification": 8702,
      "Ġmeaningful": 8703,
      "Ġhazard": 8704,
      "urches": 8705,
      "ulates": 8706,
      "ocated": 8707,
      "Ġrecre": 8708,
      "Ġconsent": 8709,
      "Ġattach": 8710,
      "Ġpolar": 8711,
      "2016": 8712,
      "Ġgrid": 8713,
      "Ġconcerning": 8714,
      "Ġordinary": 8715,
      "Ġhighlights": 8716,
      "Pl": 8717,
      "Ġgiant": 8718,
      "ĠPu": 8719,
      "ĠPope": 8720,
      "Ġritual": 8721,
      "ĠOR": 8722,
      "Ġ2023": 8723,
      "aware": 8724,
      "Ġmoderate": 8725,
      "Ġentering": 8726,
      "Ġfinds": 8727,
      "Ġcontributing": 8728,
      "Ġordered": 8729,
      "ĠMissouri": 8730,
      "Ġexpertise": 8731,
      "ĠVictoria": 8732,
      "ĠThird": 8733,
      "Ġoutdoor": 8734,
      "Ġdecay": 8735,
      "Ġavailability": 8736,
      "Ġhandling": 8737,
      "Ġdebt": 8738,
      "ĠIncre": 8739,
      "ĠEconomic": 8740,
      "Ġdramatic": 8741,
      "Ġisolated": 8742,
      "ket": 8743,
      "Ġdating": 8744,
      "ĠGir": 8745,
      "Ġrh": 8746,
      "Ġsupplements": 8747,
      "Ġassume": 8748,
      "Ġpoems": 8749,
      "aneous": 8750,
      "ESS": 8751,
      "haust": 8752,
      "Ġexhibition": 8753,
      "just": 8754,
      "oids": 8755,
      "Ġtip": 8756,
      "Ġdies": 8757,
      "aylor": 8758,
      "Ġheating": 8759,
      "aints": 8760,
      "Ġadolesc": 8761,
      "Ġattitudes": 8762,
      "ĠYears": 8763,
      "56": 8764,
      "Ġbanks": 8765,
      "ĠTar": 8766,
      "ĠMaterial": 8767,
      "ĠRen": 8768,
      "ĠRam": 8769,
      "ĠEnt": 8770,
      "Ġspr": 8771,
      "Ġcoach": 8772,
      "ĠProble": 8773,
      "Ġopposition": 8774,
      "Ġcollective": 8775,
      "ophyll": 8776,
      "ĠAlexander": 8777,
      "Ġspoken": 8778,
      "oil": 8779,
      "Ġvel": 8780,
      "Ġsch": 8781,
      "Ġcub": 8782,
      "Ġpand": 8783,
      "irms": 8784,
      "ĠLady": 8785,
      "Ġbelieves": 8786,
      "Ġvaccines": 8787,
      "Ġembra": 8788,
      "Ġdecreased": 8789,
      "Ġsaved": 8790,
      "miss": 8791,
      "Ġdairy": 8792,
      "Ġessentially": 8793,
      "Ġlowest": 8794,
      "ĠWithin": 8795,
      "bel": 8796,
      "iner": 8797,
      "atial": 8798,
      "omatic": 8799,
      "Ġorbit": 8800,
      "Ġ95": 8801,
      "Ġparad": 8802,
      "Ġparliament": 8803,
      "Ġvariations": 8804,
      "ĠGovernor": 8805,
      "Ġkilling": 8806,
      "Ġpreparing": 8807,
      "itchen": 8808,
      "ĠJacob": 8809,
      "Ġaccompanied": 8810,
      "LC": 8811,
      "ĠSatur": 8812,
      "heric": 8813,
      "oded": 8814,
      "Ġinterventions": 8815,
      "Ġfarms": 8816,
      "Ġsafely": 8817,
      "Ġexciting": 8818,
      "Ġconflicts": 8819,
      "ĠDigital": 8820,
      "Ġsale": 8821,
      "Ġthread": 8822,
      "ĠIce": 8823,
      "ĠDO": 8824,
      "ĠJones": 8825,
      "brid": 8826,
      "Ġbullying": 8827,
      "world": 8828,
      "ĠKorea": 8829,
      "ivestock": 8830,
      "def": 8831,
      "athered": 8832,
      "ocument": 8833,
      "Ġseasons": 8834,
      "ĠInv": 8835,
      "Ġadverse": 8836,
      "Ġscope": 8837,
      "ĠStatistics": 8838,
      "ĠAnswer": 8839,
      "http": 8840,
      "92": 8841,
      "Ġtrick": 8842,
      "Ġly": 8843,
      "ĠBell": 8844,
      "Ġsevent": 8845,
      "earch": 8846,
      "Ġclients": 8847,
      "Ġconfig": 8848,
      "Ġcourts": 8849,
      "Ġanalys": 8850,
      "Ġterror": 8851,
      "Ġcollections": 8852,
      "ĠFacebook": 8853,
      "08": 8854,
      "wa": 8855,
      "Ġbub": 8856,
      "Ġbatt": 8857,
      "Ġstones": 8858,
      "Ġchlor": 8859,
      "ĠGard": 8860,
      "Ġresc": 8861,
      "Ġapplying": 8862,
      "Ġpubl": 8863,
      "Ġdemands": 8864,
      "Ġsteam": 8865,
      "Ġbalanced": 8866,
      "CR": 8867,
      "oons": 8868,
      "Ġdimens": 8869,
      "rays": 8870,
      "ĠPut": 8871,
      "Ġhence": 8872,
      "apore": 8873,
      "Ġentit": 8874,
      "ega": 8875,
      "Ġkeeps": 8876,
      "Ġworkshop": 8877,
      "Ġ1945": 8878,
      "Ġexperiencing": 8879,
      "ĠNavy": 8880,
      ".[": 8881,
      "EG": 8882,
      "Pro": 8883,
      "ĠHig": 8884,
      "unning": 8885,
      "ĠThink": 8886,
      "ervative": 8887,
      "Ġrac": 8888,
      "Ġraising": 8889,
      "ĠHeb": 8890,
      "Ġdevelops": 8891,
      "Ġmyst": 8892,
      "Ġplanets": 8893,
      "Ġillegal": 8894,
      "zym": 8895,
      "Ġgases": 8896,
      "ĠMess": 8897,
      "ĠPedagogical": 8898,
      "ĠEdition": 8899,
      "ĠField": 8900,
      "Ġkg": 8901,
      "Ġhabitats": 8902,
      "Ġpriority": 8903,
      "Ġpromoting": 8904,
      "Ġrainfall": 8905,
      "itzer": 8906,
      "ĠCultural": 8907,
      "Ġmortality": 8908,
      "adelph": 8909,
      "\")": 8910,
      "300": 8911,
      "rection": 8912,
      "Ġov": 8913,
      "Ġpairs": 8914,
      "Ġvine": 8915,
      "ĠNight": 8916,
      "Ġspons": 8917,
      "Ġsoils": 8918,
      "Ġquiet": 8919,
      "Ġprotective": 8920,
      "Ġreflected": 8921,
      "Ġelementary": 8922,
      "And": 8923,
      "law": 8924,
      "mi": 8925,
      "Ġspan": 8926,
      "Ġpeoples": 8927,
      "Ġ120": 8928,
      "ĠNep": 8929,
      "Ġroyal": 8930,
      "ĠReal": 8931,
      "ĠAlz": 8932,
      "Ġinfluences": 8933,
      "Ġsensors": 8934,
      "Ġminority": 8935,
      "effect": 8936,
      "aning": 8937,
      "Ġorange": 8938,
      "eping": 8939,
      "Ġreflection": 8940,
      "rained": 8941,
      "Ġ1985": 8942,
      "ĠPoland": 8943,
      "Ġresearcher": 8944,
      "zech": 8945,
      "ĠOften": 8946,
      "Ġinvestigate": 8947,
      "Ġincorporated": 8948,
      "Ġpregnant": 8949,
      "ĠCred": 8950,
      "ĠMind": 8951,
      "Ġshru": 8952,
      "forest": 8953,
      "Ġdebut": 8954,
      "Ġelsewhere": 8955,
      "Ġassumed": 8956,
      "Ġtumor": 8957,
      "Go": 8958,
      "itting": 8959,
      "ĠPresent": 8960,
      "thon": 8961,
      "Ġenables": 8962,
      "Ġdose": 8963,
      "rowth": 8964,
      "Ġelectro": 8965,
      "Ġplanted": 8966,
      "ĠTreatment": 8967,
      "yard": 8968,
      "Ġ~": 8969,
      "rell": 8970,
      "uman": 8971,
      "Ġcompens": 8972,
      "Ġthereby": 8973,
      "Ġimprovements": 8974,
      "Ġlosses": 8975,
      "Ġstopped": 8976,
      "Ġnutrient": 8977,
      "Ġjuice": 8978,
      "Ġinhabit": 8979,
      "Ġmixture": 8980,
      "ĠMicrosoft": 8981,
      "Ġcarbohyd": 8982,
      "Ġtongue": 8983,
      ".).": 8984,
      "MM": 8985,
      "van": 8986,
      "icular": 8987,
      "ĠSelf": 8988,
      "Ġasc": 8989,
      "ĠDie": 8990,
      "Ġweigh": 8991,
      "Ġtransmit": 8992,
      "2020": 8993,
      "Ġpursu": 8994,
      "Ġsunlight": 8995,
      "Ġgardens": 8996,
      "adelphia": 8997,
      "vision": 8998,
      "Ġjoy": 8999,
      "ensed": 9000,
      "Ġsimult": 9001,
      "Ġcirculation": 9002,
      "Ġparticipated": 9003,
      "Ġtitled": 9004,
      "Ġemerged": 9005,
      "Ġmanufacturers": 9006,
      "Ġphrases": 9007,
      "Ġecosystems": 9008,
      "Ġdominant": 9009,
      "May": 9010,
      "dd": 9011,
      "uther": 9012,
      "quest": 9013,
      "Ġprovince": 9014,
      "Ġsheep": 9015,
      "Ġgrains": 9016,
      "Ġhumanity": 9017,
      "Ġdefinitely": 9018,
      "Ġfacilitate": 9019,
      "Ġdiscipline": 9020,
      "ĠAmazon": 9021,
      "Ġtight": 9022,
      "enter": 9023,
      "Ġcancers": 9024,
      "izers": 9025,
      "Ġfilter": 9026,
      "Ġaddressed": 9027,
      "Ġcolonial": 9028,
      "2000": 9029,
      "top": 9030,
      "Ġfing": 9031,
      "ilst": 9032,
      "idae": 9033,
      "Ġclay": 9034,
      "Ġbuying": 9035,
      "Ġexploring": 9036,
      "Ġrequirement": 9037,
      "ĠCorps": 9038,
      "Ġsuscept": 9039,
      "ĠPhysics": 9040,
      "Ġenemy": 9041,
      "Ġchoosing": 9042,
      "da": 9043,
      "Ġdil": 9044,
      "ĠBand": 9045,
      "ĠFer": 9046,
      "ĠNO": 9047,
      "Ġcontents": 9048,
      "Ġrelie": 9049,
      "Ġpromise": 9050,
      "Ġ1987": 9051,
      "2008": 9052,
      "Ġmeetings": 9053,
      "Ġreasonable": 9054,
      "Ġseriously": 9055,
      "aust": 9056,
      "ilton": 9057,
      "Ġinterior": 9058,
      "ĠApple": 9059,
      "ĠBridge": 9060,
      "ocolate": 9061,
      "school": 9062,
      "ĠÄ": 9063,
      "ĠTalk": 9064,
      "Ġlob": 9065,
      "Ġgift": 9066,
      "ĠWatch": 9067,
      "usive": 9068,
      "acher": 9069,
      "Ġphysically": 9070,
      "Ġstructured": 9071,
      "ĠDiscuss": 9072,
      "ĠConnect": 9073,
      "ĠWikipedia": 9074,
      "Ġempty": 9075,
      "CP": 9076,
      "Ġsizes": 9077,
      "Ġcow": 9078,
      "------|": 9079,
      "ĠKim": 9080,
      "Ġfeels": 9081,
      "Ġdevelopments": 9082,
      "Ġcorrel": 9083,
      "Ġfatty": 9084,
      "ĠLaboratory": 9085,
      "umatic": 9086,
      "Ġuncom": 9087,
      "Ġtransformation": 9088,
      "Ġmedieval": 9089,
      "Ġpublications": 9090,
      "ĠPhD": 9091,
      "ĠJustice": 9092,
      "Ġpunishment": 9093,
      "giene": 9094,
      "Hist": 9095,
      "TA": 9096,
      "lock": 9097,
      "Ġsoul": 9098,
      "urrent": 9099,
      "Ġhem": 9100,
      "ĠRa": 9101,
      "Ġinfants": 9102,
      "Ġhardware": 9103,
      "Ġbarriers": 9104,
      "Ġloop": 9105,
      "Ġuniversities": 9106,
      "Ġdrivers": 9107,
      "%,": 9108,
      "non": 9109,
      "ĠTenn": 9110,
      "Ġlingu": 9111,
      "ĠPH": 9112,
      "ifice": 9113,
      "emor": 9114,
      "ĠStaff": 9115,
      "ĠKn": 9116,
      "Ġreput": 9117,
      "Ġparish": 9118,
      "Ġ1981": 9119,
      "Ġdescribing": 9120,
      "Ġseparated": 9121,
      "Ġirrig": 9122,
      "Ġflexible": 9123,
      "ĠComputer": 9124,
      "Ġpale": 9125,
      "Ġfra": 9126,
      "Ġlibr": 9127,
      "ĠDiet": 9128,
      "2018": 9129,
      "Ġpractition": 9130,
      "Ġproductive": 9131,
      "Ġconsume": 9132,
      "shaped": 9133,
      "ĠConsider": 9134,
      "Ġpaintings": 9135,
      "Ġantibiotics": 9136,
      "gence": 9137,
      "made": 9138,
      "Ã§": 9139,
      "Ġï¬ģ": 9140,
      "Ġfinger": 9141,
      "ila": 9142,
      "Ġloose": 9143,
      "ĠIde": 9144,
      "owing": 9145,
      "ĠMap": 9146,
      "Ġenorm": 9147,
      "Ġwrites": 9148,
      "ĠIss": 9149,
      "Ġharder": 9150,
      "ĠTree": 9151,
      "Ġ(\"": 9152,
      "ĠDun": 9153,
      "ĠFOR": 9154,
      "ĠOnt": 9155,
      "Ġtraits": 9156,
      "Ġprime": 9157,
      "Ġpassion": 9158,
      "ĠBlood": 9159,
      "grade": 9160,
      "rizona": 9161,
      "Ġstreets": 9162,
      "53": 9163,
      "Res": 9164,
      "iop": 9165,
      "inner": 9166,
      "Ġcort": 9167,
      "Ġmg": 9168,
      "Ġhack": 9169,
      "Ġsegment": 9170,
      "Ġclock": 9171,
      "Ġcooperation": 9172,
      "ĠAltern": 9173,
      "Ġprofile": 9174,
      "Ġeleph": 9175,
      "Ġofficially": 9176,
      "ĠParticip": 9177,
      "Ġceleb": 9178,
      "Ġduties": 9179,
      "ĠBulgar": 9180,
      "burgh": 9181,
      "91": 9182,
      "eut": 9183,
      "oz": 9184,
      "Ã±": 9185,
      "ĠSustain": 9186,
      "ĠLin": 9187,
      "ocial": 9188,
      "icals": 9189,
      "Ġ42": 9190,
      "hedral": 9191,
      "Ġending": 9192,
      "ĠBehav": 9193,
      "Ġcreatures": 9194,
      "apped": 9195,
      "Ġdietary": 9196,
      "Ġpanels": 9197,
      "ĠAlzheimer": 9198,
      "Ġgest": 9199,
      "Ġexempl": 9200,
      "ĠNag": 9201,
      "Ġsubsc": 9202,
      "chnology": 9203,
      "Ġconsumed": 9204,
      "Ġdeeply": 9205,
      "Ġbought": 9206,
      "aded": 9207,
      "Ġhaven": 9208,
      "eller": 9209,
      "ĠProper": 9210,
      "Ġmonument": 9211,
      "Ġcaps": 9212,
      "Ġvisits": 9213,
      "ĠImport": 9214,
      "IST": 9215,
      "ĠChampionship": 9216,
      "Ġmetabol": 9217,
      "orters": 9218,
      "Ġped": 9219,
      "olk": 9220,
      "rait": 9221,
      "ĠMarc": 9222,
      "Ġreconst": 9223,
[...]
